{
  "version": "1.0",
  "truncation": {
    "direction": "Right",
    "max_length": 512,
    "strategy": "LongestFirst",
    "stride": 0
  },
  "padding": {
    "strategy": {
      "Fixed": 512
    },
    "direction": "Right",
    "pad_to_multiple_of": null,
    "pad_id": 0,
    "pad_type_id": 0,
    "pad_token": "<|endoftext|>"
  },
  "added_tokens": [
    {
      "id": 0,
      "content": "<|endoftext|>",
      "single_word": false,
      "lstrip": false,
      "rstrip": false,
      "normalized": false,
      "special": true
    },
    {
      "id": 1,
      "content": "<fim_prefix>",
      "single_word": false,
      "lstrip": false,
      "rstrip": false,
      "normalized": false,
      "special": true
    },
    {
      "id": 2,
      "content": "<fim_middle>",
      "single_word": false,
      "lstrip": false,
      "rstrip": false,
      "normalized": false,
      "special": true
    },
    {
      "id": 3,
      "content": "<fim_suffix>",
      "single_word": false,
      "lstrip": false,
      "rstrip": false,
      "normalized": false,
      "special": true
    },
    {
      "id": 4,
      "content": "<fim_pad>",
      "single_word": false,
      "lstrip": false,
      "rstrip": false,
      "normalized": false,
      "special": true
    },
    {
      "id": 5,
      "content": "<repo_name>",
      "single_word": false,
      "lstrip": false,
      "rstrip": false,
      "normalized": false,
      "special": true
    },
    {
      "id": 6,
      "content": "<file_sep>",
      "single_word": false,
      "lstrip": false,
      "rstrip": false,
      "normalized": false,
      "special": true
    },
    {
      "id": 7,
      "content": "<issue_start>",
      "single_word": false,
      "lstrip": false,
      "rstrip": false,
      "normalized": false,
      "special": true
    },
    {
      "id": 8,
      "content": "<issue_comment>",
      "single_word": false,
      "lstrip": false,
      "rstrip": false,
      "normalized": false,
      "special": true
    },
    {
      "id": 9,
      "content": "<issue_closed>",
      "single_word": false,
      "lstrip": false,
      "rstrip": false,
      "normalized": false,
      "special": true
    },
    {
      "id": 10,
      "content": "<jupyter_start>",
      "single_word": false,
      "lstrip": false,
      "rstrip": false,
      "normalized": false,
      "special": true
    },
    {
      "id": 11,
      "content": "<jupyter_text>",
      "single_word": false,
      "lstrip": false,
      "rstrip": false,
      "normalized": false,
      "special": true
    },
    {
      "id": 12,
      "content": "<jupyter_code>",
      "single_word": false,
      "lstrip": false,
      "rstrip": false,
      "normalized": false,
      "special": true
    },
    {
      "id": 13,
      "content": "<jupyter_output>",
      "single_word": false,
      "lstrip": false,
      "rstrip": false,
      "normalized": false,
      "special": true
    },
    {
      "id": 14,
      "content": "<jupyter_script>",
      "single_word": false,
      "lstrip": false,
      "rstrip": false,
      "normalized": false,
      "special": true
    },
    {
      "id": 15,
      "content": "<empty_output>",
      "single_word": false,
      "lstrip": false,
      "rstrip": false,
      "normalized": false,
      "special": true
    },
    {
      "id": 16,
      "content": "<code_to_intermediate>",
      "single_word": false,
      "lstrip": false,
      "rstrip": false,
      "normalized": false,
      "special": true
    },
    {
      "id": 17,
      "content": "<intermediate_to_code>",
      "single_word": false,
      "lstrip": false,
      "rstrip": false,
      "normalized": false,
      "special": true
    },
    {
      "id": 18,
      "content": "<pr>",
      "single_word": false,
      "lstrip": false,
      "rstrip": false,
      "normalized": false,
      "special": true
    },
    {
      "id": 19,
      "content": "<pr_status>",
      "single_word": false,
      "lstrip": false,
      "rstrip": false,
      "normalized": false,
      "special": true
    },
    {
      "id": 20,
      "content": "<pr_is_merged>",
      "single_word": false,
      "lstrip": false,
      "rstrip": false,
      "normalized": false,
      "special": true
    },
    {
      "id": 21,
      "content": "<pr_base>",
      "single_word": false,
      "lstrip": false,
      "rstrip": false,
      "normalized": false,
      "special": true
    },
    {
      "id": 22,
      "content": "<pr_file>",
      "single_word": false,
      "lstrip": false,
      "rstrip": false,
      "normalized": false,
      "special": true
    },
    {
      "id": 23,
      "content": "<pr_base_code>",
      "single_word": false,
      "lstrip": false,
      "rstrip": false,
      "normalized": false,
      "special": true
    },
    {
      "id": 24,
      "content": "<pr_diff>",
      "single_word": false,
      "lstrip": false,
      "rstrip": false,
      "normalized": false,
      "special": true
    },
    {
      "id": 25,
      "content": "<pr_diff_hunk>",
      "single_word": false,
      "lstrip": false,
      "rstrip": false,
      "normalized": false,
      "special": true
    },
    {
      "id": 26,
      "content": "<pr_comment>",
      "single_word": false,
      "lstrip": false,
      "rstrip": false,
      "normalized": false,
      "special": true
    },
    {
      "id": 27,
      "content": "<pr_event_id>",
      "single_word": false,
      "lstrip": false,
      "rstrip": false,
      "normalized": false,
      "special": true
    },
    {
      "id": 28,
      "content": "<pr_review>",
      "single_word": false,
      "lstrip": false,
      "rstrip": false,
      "normalized": false,
      "special": true
    },
    {
      "id": 29,
      "content": "<pr_review_state>",
      "single_word": false,
      "lstrip": false,
      "rstrip": false,
      "normalized": false,
      "special": true
    },
    {
      "id": 30,
      "content": "<pr_review_comment>",
      "single_word": false,
      "lstrip": false,
      "rstrip": false,
      "normalized": false,
      "special": true
    },
    {
      "id": 31,
      "content": "<pr_in_reply_to_review_id>",
      "single_word": false,
      "lstrip": false,
      "rstrip": false,
      "normalized": false,
      "special": true
    },
    {
      "id": 32,
      "content": "<pr_in_reply_to_comment_id>",
      "single_word": false,
      "lstrip": false,
      "rstrip": false,
      "normalized": false,
      "special": true
    },
    {
      "id": 33,
      "content": "<pr_diff_hunk_comment_line>",
      "single_word": false,
      "lstrip": false,
      "rstrip": false,
      "normalized": false,
      "special": true
    },
    {
      "id": 34,
      "content": "<NAME>",
      "single_word": false,
      "lstrip": false,
      "rstrip": false,
      "normalized": false,
      "special": true
    },
    {
      "id": 35,
      "content": "<EMAIL>",
      "single_word": false,
      "lstrip": false,
      "rstrip": false,
      "normalized": false,
      "special": true
    },
    {
      "id": 36,
      "content": "<KEY>",
      "single_word": false,
      "lstrip": false,
      "rstrip": false,
      "normalized": false,
      "special": true
    },
    {
      "id": 37,
      "content": "<PASSWORD>",
      "single_word": false,
      "lstrip": false,
      "rstrip": false,
      "normalized": false,
      "special": true
    }
  ],
  "normalizer": null,
  "pre_tokenizer": {
    "type": "ByteLevel",
    "add_prefix_space": false,
    "trim_offsets": true,
    "use_regex": true
  },
  "post_processor": {
    "type": "TemplateProcessing",
    "single": [
      {
        "Sequence": {
          "id": "A",
          "type_id": 0
        }
      }
    ],
    "pair": [
      {
        "Sequence": {
          "id": "A",
          "type_id": 0
        }
      },
      {
        "Sequence": {
          "id": "B",
          "type_id": 1
        }
      }
    ],
    "special_tokens": {}
  },
  "decoder": {
    "type": "ByteLevel",
    "add_prefix_space": true,
    "trim_offsets": true,
    "use_regex": true
  },
  "model": {
    "type": "BPE",
    "dropout": null,
    "unk_token": null,
    "continuing_subword_prefix": "",
    "end_of_word_suffix": "",
    "fuse_unk": false,
    "byte_fallback": false,
    "ignore_merges": false,
    "vocab": {
      "<|endoftext|>": 0,
      "<fim_prefix>": 1,
      "<fim_middle>": 2,
      "<fim_suffix>": 3,
      "<fim_pad>": 4,
      "<repo_name>": 5,
      "<file_sep>": 6,
      "<issue_start>": 7,
      "<issue_comment>": 8,
      "<issue_closed>": 9,
      "<jupyter_start>": 10,
      "<jupyter_text>": 11,
      "<jupyter_code>": 12,
      "<jupyter_output>": 13,
      "<jupyter_script>": 14,
      "<empty_output>": 15,
      "<code_to_intermediate>": 16,
      "<intermediate_to_code>": 17,
      "<pr>": 18,
      "<pr_status>": 19,
      "<pr_is_merged>": 20,
      "<pr_base>": 21,
      "<pr_file>": 22,
      "<pr_base_code>": 23,
      "<pr_diff>": 24,
      "<pr_diff_hunk>": 25,
      "<pr_comment>": 26,
      "<pr_event_id>": 27,
      "<pr_review>": 28,
      "<pr_review_state>": 29,
      "<pr_review_comment>": 30,
      "<pr_in_reply_to_review_id>": 31,
      "<pr_in_reply_to_comment_id>": 32,
      "<pr_diff_hunk_comment_line>": 33,
      "<NAME>": 34,
      "<EMAIL>": 35,
      "<KEY>": 36,
      "<PASSWORD>": 37,
      "!": 38,
      "\"": 39,
      "#": 40,
      "$": 41,
      "%": 42,
      "&": 43,
      "'": 44,
      "(": 45,
      ")": 46,
      "*": 47,
      "+": 48,
      ",": 49,
      "-": 50,
      ".": 51,
      "/": 52,
      "0": 53,
      "1": 54,
      "2": 55,
      "3": 56,
      "4": 57,
      "5": 58,
      "6": 59,
      "7": 60,
      "8": 61,
      "9": 62,
      ":": 63,
      ";": 64,
      "<": 65,
      "=": 66,
      ">": 67,
      "?": 68,
      "@": 69,
      "A": 70,
      "B": 71,
      "C": 72,
      "D": 73,
      "E": 74,
      "F": 75,
      "G": 76,
      "H": 77,
      "I": 78,
      "J": 79,
      "K": 80,
      "L": 81,
      "M": 82,
      "N": 83,
      "O": 84,
      "P": 85,
      "Q": 86,
      "R": 87,
      "S": 88,
      "T": 89,
      "U": 90,
      "V": 91,
      "W": 92,
      "X": 93,
      "Y": 94,
      "Z": 95,
      "[": 96,
      "\\": 97,
      "]": 98,
      "^": 99,
      "_": 100,
      "`": 101,
      "a": 102,
      "b": 103,
      "c": 104,
      "d": 105,
      "e": 106,
      "f": 107,
      "g": 108,
      "h": 109,
      "i": 110,
      "j": 111,
      "k": 112,
      "l": 113,
      "m": 114,
      "n": 115,
      "o": 116,
      "p": 117,
      "q": 118,
      "r": 119,
      "s": 120,
      "t": 121,
      "u": 122,
      "v": 123,
      "w": 124,
      "x": 125,
      "y": 126,
      "z": 127,
      "{": 128,
      "|": 129,
      "}": 130,
      "~": 131,
      "¡": 132,
      "¢": 133,
      "£": 134,
      "¤": 135,
      "¥": 136,
      "¦": 137,
      "§": 138,
      "¨": 139,
      "©": 140,
      "ª": 141,
      "«": 142,
      "¬": 143,
      "®": 144,
      "¯": 145,
      "°": 146,
      "±": 147,
      "²": 148,
      "³": 149,
      "´": 150,
      "µ": 151,
      "¶": 152,
      "·": 153,
      "¸": 154,
      "¹": 155,
      "º": 156,
      "»": 157,
      "¼": 158,
      "½": 159,
      "¾": 160,
      "¿": 161,
      "Â": 162,
      "Ã": 163,
      "Ä": 164,
      "Å": 165,
      "Æ": 166,
      "Ç": 167,
      "È": 168,
      "É": 169,
      "Ê": 170,
      "Ë": 171,
      "Ì": 172,
      "Í": 173,
      "Î": 174,
      "Ï": 175,
      "Ð": 176,
      "Ñ": 177,
      "Ò": 178,
      "Ó": 179,
      "Ô": 180,
      "Õ": 181,
      "Ö": 182,
      "×": 183,
      "Ø": 184,
      "Ù": 185,
      "Ú": 186,
      "Û": 187,
      "Ü": 188,
      "Ý": 189,
      "Þ": 190,
      "ß": 191,
      "à": 192,
      "á": 193,
      "â": 194,
      "ã": 195,
      "ä": 196,
      "å": 197,
      "æ": 198,
      "ç": 199,
      "è": 200,
      "é": 201,
      "ê": 202,
      "ë": 203,
      "ì": 204,
      "í": 205,
      "î": 206,
      "ï": 207,
      "ð": 208,
      "ò": 209,
      "ó": 210,
      "ô": 211,
      "Ā": 212,
      "ā": 213,
      "Ă": 214,
      "ă": 215,
      "Ą": 216,
      "ą": 217,
      "Ć": 218,
      "ć": 219,
      "Ĉ": 220,
      "ĉ": 221,
      "Ċ": 222,
      "ċ": 223,
      "Č": 224,
      "č": 225,
      "Ď": 226,
      "ď": 227,
      "Đ": 228,
      "đ": 229,
      "Ē": 230,
      "ē": 231,
      "Ĕ": 232,
      "ĕ": 233,
      "Ė": 234,
      "ė": 235,
      "Ę": 236,
      "ę": 237,
      "Ě": 238,
      "ě": 239,
      "Ĝ": 240,
      "ĝ": 241,
      "Ğ": 242,
      "ğ": 243,
      "Ġ": 244,
      "ġ": 245,
      "Ģ": 246,
      "ģ": 247,
      "Ĥ": 248,
      "ĥ": 249,
      "Ħ": 250,
      "ħ": 251,
      "Ĩ": 252,
      "ĩ": 253,
      "Ī": 254,
      "ī": 255,
      "Ĭ": 256,
      "ĭ": 257,
      "Į": 258,
      "į": 259,
      "İ": 260,
      "ı": 261,
      "Ĳ": 262,
      "ĳ": 263,
      "Ĵ": 264,
      "ĵ": 265,
      "Ķ": 266,
      "ķ": 267,
      "ĸ": 268,
      "Ĺ": 269,
      "ĺ": 270,
      "Ļ": 271,
      "ļ": 272,
      "Ľ": 273,
      "ľ": 274,
      "Ŀ": 275,
      "ŀ": 276,
      "Ł": 277,
      "ł": 278,
      "Ń": 279,
      "ĠĠ": 280,
      "ĠĠĠĠ": 281,
      "ĠĠĠĠĠĠĠĠ": 282,
      "ĠĠĠ": 283,
      "er": 284,
      "in": 285,
      "on": 286,
      "re": 287,
      "at": 288,
      "st": 289,
      "or": 290,
      "en": 291,
      "Ġt": 292,
      "le": 293,
      "ĊĠĠĠĠ": 294,
      "ĊĠĠĠĠĠĠĠĠ": 295,
      "se": 296,
      "an": 297,
      "al": 298,
      "Ġ=": 299,
      "Ġc": 300,
      "ar": 301,
      "it": 302,
      "ĊĠĠĠ": 303,
      "ion": 304,
      "de": 305,
      "--": 306,
      "ct": 307,
      "me": 308,
      "ro": 309,
      "ĊĠĠĠĠĠĠĠ": 310,
      "he": 311,
      ");": 312,
      "ĉĉ": 313,
      "ic": 314,
      "Ġf": 315,
      "is": 316,
      "Ġp": 317,
      "ing": 318,
      "ge": 319,
      "Ġ{": 320,
      "as": 321,
      "ut": 322,
      "ent": 323,
      "ur": 324,
      "//": 325,
      "es": 326,
      "Ġ(": 327,
      "Ġs": 328,
      "Ġn": 329,
      "un": 330,
      "Ġa": 331,
      "Ġ\"": 332,
      "id": 333,
      "Ġre": 334,
      "lo": 335,
      "mp": 336,
      "ed": 337,
      "Ġ*": 338,
      "Ġ}": 339,
      "ame": 340,
      "Ġthe": 341,
      "Ġb": 342,
      "ĊĠĠĠĠĠĠĠĠĠĠĠ": 343,
      "if": 344,
      "**": 345,
      "ex": 346,
      "Ġin": 347,
      "ac": 348,
      "Ġ'": 349,
      "Ġ<": 350,
      "ate": 351,
      "co": 352,
      "ĊĠ": 353,
      "il": 354,
      "----": 355,
      "Ġo": 356,
      "ul": 357,
      "ad": 358,
      "ue": 359,
      "Ġw": 360,
      "el": 361,
      "Ġd": 362,
      "ri": 363,
      "Ġm": 364,
      "()": 365,
      "=\"": 366,
      "pe": 367,
      "th": 368,
      "ass": 369,
      "ĠĠĠĠĠĠĠ": 370,
      "us": 371,
      "ĊĠĠĠĠĠĠĠĠĠĠĠĠĠĠĠĠ": 372,
      "Ġv": 373,
      "Ċĉĉ": 374,
      "ub": 375,
      "Ċĉ": 376,
      "ĠS": 377,
      "tr": 378,
      "Ġth": 379,
      "ab": 380,
      "ol": 381,
      "and": 382,
      "et": 383,
      "ig": 384,
      "ot": 385,
      "ap": 386,
      "ation": 387,
      "ce": 388,
      "',": 389,
      "get": 390,
      "Ġto": 391,
      "ort": 392,
      "li": 393,
      "urn": 394,
      "Ġst": 395,
      "</": 396,
      "um": 397,
      "==": 398,
      "ch": 399,
      "age": 400,
      "ction": 401,
      "In": 402,
      "ht": 403,
      "pt": 404,
      "lass": 405,
      "ont": 406,
      "iv": 407,
      "turn": 408,
      "ĠC": 409,
      "ter": 410,
      "\",": 411,
      "ew": 412,
      "ĠT": 413,
      "ay": 414,
      "->": 415,
      "ĊĠĠĠĠĠ": 416,
      "Ġ$": 417,
      "ĠA": 418,
      "ĊĠĠĠĠĠĠĠĠĠĠĠĠĠĠĠ": 419,
      "ata": 420,
      "ode": 421,
      "::": 422,
      "em": 423,
      "am": 424,
      "lic": 425,
      "ext": 426,
      "Ġse": 427,
      "Ġde": 428,
      "int": 429,
      "ype": 430,
      "ect": 431,
      "\">": 432,
      "ile": 433,
      "Ġif": 434,
      "end": 435,
      "up": 436,
      "om": 437,
      "sp": 438,
      "Ġh": 439,
      "imp": 440,
      "ss": 441,
      "ĠĠĠĠĠĠĠĠĠĠĠĠĠĠĠĠ": 442,
      "ver": 443,
      "name": 444,
      "iz": 445,
      "ist": 446,
      "Ġ[": 447,
      "--------": 448,
      "Ġ-": 449,
      "od": 450,
      "Ġof": 451,
      "##": 452,
      "Ġ//": 453,
      "Re": 454,
      "čĊ": 455,
      "Ġfor": 456,
      "ĠI": 457,
      "Ġis": 458,
      "(\"": 459,
      "ow": 460,
      "Ġreturn": 461,
      "Ġclass": 462,
      "able": 463,
      "est": 464,
      "ĊĊĠĠĠ": 465,
      "ĠP": 466,
      "qu": 467,
      "im": 468,
      "ith": 469,
      "****": 470,
      "to": 471,
      "av": 472,
      "ck": 473,
      "ult": 474,
      "Ġl": 475,
      "Ġcon": 476,
      "Ġthis": 477,
      "ack": 478,
      "ase": 479,
      "Ġand": 480,
      "per": 481,
      "('": 482,
      "all": 483,
      "str": 484,
      "import": 485,
      "ption": 486,
      "con": 487,
      "ment": 488,
      "set": 489,
      "),": 490,
      "alue": 491,
      "();": 492,
      "ĠD": 493,
      "Ġ+": 494,
      "ir": 495,
      "Ġ@": 496,
      "ublic": 497,
      "ke": 498,
      "ĊĊ": 499,
      "ag": 500,
      "ine": 501,
      "ers": 502,
      "Ġe": 503,
      "Ġg": 504,
      "ff": 505,
      "lf": 506,
      "ĠM": 507,
      "ĠN": 508,
      "))": 509,
      "tp": 510,
      "ject": 511,
      "der": 512,
      "orm": 513,
      "user": 514,
      "rom": 515,
      "..": 516,
      "ĠL": 517,
      "Ġ:": 518,
      "os": 519,
      "St": 520,
      "art": 521,
      "ess": 522,
      "__": 523,
      "ain": 524,
      "ĠF": 525,
      "div": 526,
      "com": 527,
      "ser": 528,
      "pro": 529,
      "====": 530,
      "ime": 531,
      "ure": 532,
      "ull": 533,
      "our": 534,
      "ĠE": 535,
      "Ġ/": 536,
      "ize": 537,
      "te": 538,
      "op": 539,
      "IN": 540,
      "tring": 541,
      "Ġ|": 542,
      "put": 543,
      "http": 544,
      "Ġbe": 545,
      "ER": 546,
      "ĊĠĠĠĠĠĠĠĠĠĠĠĠĠĠĠĠĠĠĠ": 547,
      "Ġ`": 548,
      "err": 549,
      "unction": 550,
      "Ġ=>": 551,
      "Ġpro": 552,
      "Ġy": 553,
      "que": 554,
      "act": 555,
      "Ġnew": 556,
      "Ġex": 557,
      "use": 558,
      "Ġr": 559,
      "out": 560,
      "oc": 561,
      "ity": 562,
      "Ġon": 563,
      "sc": 564,
      "ĠO": 565,
      ").": 566,
      "ire": 567,
      "Ġ&": 568,
      "ath": 569,
      "ĠB": 570,
      "čĊč": 571,
      "ind": 572,
      "Ġtr": 573,
      "://": 574,
      "Ġor": 575,
      "pl": 576,
      "Name": 577,
      "ĠR": 578,
      "ace": 579,
      "Ġit": 580,
      "Ġpublic": 581,
      "\":": 582,
      "ial": 583,
      "ice": 584,
      "nt": 585,
      "ON": 586,
      "par": 587,
      "Ġ*/": 588,
      "Ex": 589,
      "ĠG": 590,
      "``": 591,
      "cl": 592,
      "unt": 593,
      "Ġ</": 594,
      "res": 595,
      "Ċĉĉĉĉ": 596,
      "this": 597,
      "fo": 598,
      "oid": 599,
      "ert": 600,
      "dd": 601,
      "fig": 602,
      "ĊĊĠĠĠĠĠĠĠ": 603,
      "bject": 604,
      "are": 605,
      "ve": 606,
      "Ġ#": 607,
      "Pro": 608,
      "rr": 609,
      "def": 610,
      "omp": 611,
      "pp": 612,
      "Ġi": 613,
      "Ġj": 614,
      "Ġstr": 615,
      "Ġme": 616,
      "Ġlo": 617,
      "form": 618,
      "Ġan": 619,
      "return": 620,
      "Ċĉĉĉ": 621,
      "quest": 622,
      "oo": 623,
      "data": 624,
      "Id": 625,
      "ail": 626,
      "----------------": 627,
      "Con": 628,
      "ll": 629,
      "Ġ==": 630,
      "ref": 631,
      "RE": 632,
      "ĊĠĠĠĠĠĠĠĠĠ": 633,
      "Ġ_": 634,
      "sh": 635,
      "],": 636,
      "ty": 637,
      "Type": 638,
      "********": 639,
      "Ġget": 640,
      "Ġas": 641,
      "Ġwith": 642,
      "ĠW": 643,
      "port": 644,
      "arg": 645,
      "ign": 646,
      "ory": 647,
      "Ġint": 648,
      "Ġself": 649,
      "ĠU": 650,
      "ly": 651,
      "ast": 652,
      "Cont": 653,
      "ST": 654,
      "Ġname": 655,
      "iew": 656,
      "Ġ.": 657,
      "ip": 658,
      "Ġwh": 659,
      "und": 660,
      "row": 661,
      "https": 662,
      "ou": 663,
      "Ġfrom": 664,
      "ĠĠĠĠĠ": 665,
      "Ġnot": 666,
      "ost": 667,
      "ax": 668,
      "dex": 669,
      "odel": 670,
      "String": 671,
      "vent": 672,
      "Ġ!": 673,
      "ĊĠĠĠĠĠĠĠĠĠĠĠĠĠĠĠĠĠĠĠĠĠĠĠĠ": 674,
      "ord": 675,
      "ite": 676,
      "one": 677,
      "\")": 678,
      "Ġconst": 679,
      "ive": 680,
      "span": 681,
      "ĊĠĠ": 682,
      "Ġch": 683,
      "Ġdef": 684,
      "cont": 685,
      "Ġfunction": 686,
      "list": 687,
      "add": 688,
      "td": 689,
      "cess": 690,
      "iel": 691,
      "ary": 692,
      "uct": 693,
      "ĠV": 694,
      "ust": 695,
      "ĠH": 696,
      "key": 697,
      "vice": 698,
      "alse": 699,
      "type": 700,
      "ange": 701,
      "ield": 702,
      "De": 703,
      "')": 704,
      "ore": 705,
      "atic": 706,
      "code": 707,
      "Ġthat": 708,
      "ber": 709,
      "ant": 710,
      "ans": 711,
      "ight": 712,
      "ml": 713,
      "ition": 714,
      "username": 715,
      "bu": 716,
      "but": 717,
      "val": 718,
      "ĠIn": 719,
      "ãģ": 720,
      "ork": 721,
      "ource": 722,
      "ard": 723,
      "To": 724,
      "Ġun": 725,
      "ft": 726,
      "Ġdata": 727,
      "else": 728,
      "Ġcont": 729,
      "bo": 730,
      "):": 731,
      "['": 732,
      "ĊĠĠĠĠĠĠĠĠĠĠĠĠĠĠĠĠĠĠĠĠĠĠĠ": 733,
      "ress": 734,
      "io": 735,
      "ĊĊĠ": 736,
      "EN": 737,
      "ator": 738,
      "List": 739,
      "Res": 740,
      "AT": 741,
      "\");": 742,
      "ance": 743,
      "AL": 744,
      "app": 745,
      "lement": 746,
      "ill": 747,
      "](": 748,
      "let": 749,
      "error": 750,
      "ated": 751,
      "reate": 752,
      "ies": 753,
      "ec": 754,
      "Ġres": 755,
      "čĊĠĠĠ": 756,
      "yst": 757,
      "Ġset": 758,
      "ault": 759,
      "low": 760,
      "ang": 761,
      "Ġnull": 762,
      "Ġal": 763,
      "Ġdo": 764,
      "atch": 765,
      "ener": 766,
      "ere": 767,
      "Data": 768,
      "log": 769,
      "col": 770,
      "ild": 771,
      "param": 772,
      "js": 773,
      "riv": 774,
      "////": 775,
      "OR": 776,
      "ystem": 777,
      "amp": 778,
      "ule": 779,
      "so": 780,
      "file": 781,
      "Ġvoid": 782,
      "ink": 783,
      "####": 784,
      "Ġcom": 785,
      "ĊĠĠĠĠĠĠĠĠĠĠĠĠĠĠĠĠĠĠĠĠĠĠĠĠĠĠĠĠĠĠĠĠ": 786,
      "date": 787,
      "Ġ\\": 788,
      "><": 789,
      "Ġ--": 790,
      "gr": 791,
      "Ġvar": 792,
      "ak": 793,
      "mo": 794,
      "En": 795,
      "pr": 796,
      "itle": 797,
      "ID": 798,
      "IT": 799,
      "========": 800,
      "ix": 801,
      "AR": 802,
      "self": 803,
      "Ġvalue": 804,
      "ong": 805,
      "']": 806,
      "Ġsh": 807,
      "ave": 808,
      "UL": 809,
      "ument": 810,
      "($": 811,
      "lect": 812,
      "Ġuse": 813,
      "ude": 814,
      "scri": 815,
      "ä¸": 816,
      "rivate": 817,
      "sion": 818,
      "string": 819,
      "Ġ},": 820,
      "Ġstring": 821,
      "Ġfile": 822,
      "heck": 823,
      "ide": 824,
      "SE": 825,
      "ception": 826,
      "lock": 827,
      "Ġid": 828,
      "Ġby": 829,
      "Ser": 830,
      "aw": 831,
      "Ġelse": 832,
      "LE": 833,
      "abel": 834,
      "og": 835,
      "čĊĠĠĠĠĠĠĠ": 836,
      "Ġx": 837,
      "eng": 838,
      "ader": 839,
      "Ġat": 840,
      "roup": 841,
      "class": 842,
      "onse": 843,
      "lient": 844,
      "oul": 845,
      "Ch": 846,
      "Ġtype": 847,
      "Ġ)": 848,
      "ribut": 849,
      "ould": 850,
      "Ġk": 851,
      "ery": 852,
      "ph": 853,
      "clude": 854,
      "},": 855,
      "ud": 856,
      "ense": 857,
      "br": 858,
      "thod": 859,
      "yn": 860,
      "ome": 861,
      "atus": 862,
      "Ġyou": 863,
      "po": 864,
      "arr": 865,
      "rror": 866,
      "rig": 867,
      "Ġ>": 868,
      "DE": 869,
      "read": 870,
      "inal": 871,
      "value": 872,
      "></": 873,
      "urre": 874,
      "Tr": 875,
      "yle": 876,
      "uth": 877,
      "Ġtrue": 878,
      "umber": 879,
      "assert": 880,
      "test": 881,
      "Ġ!=": 882,
      "be": 883,
      "\";": 884,
      "ï¼": 885,
      "ach": 886,
      "var": 887,
      "quire": 888,
      "Col": 889,
      "ãĥ": 890,
      "eb": 891,
      "ger": 892,
      "ms": 893,
      "));": 894,
      "../": 895,
      "own": 896,
      "text": 897,
      "Ġpar": 898,
      "Value": 899,
      "ãĤ": 900,
      "loc": 901,
      "Ġcan": 902,
      "Set": 903,
      "Ġare": 904,
      "ug": 905,
      "ĠThe": 906,
      "min": 907,
      "Ġ///": 908,
      "new": 909,
      "ĠString": 910,
      "size": 911,
      "');": 912,
      "Ġtest": 913,
      "ache": 914,
      "image": 915,
      "ithub": 916,
      "pec": 917,
      "rc": 918,
      "tern": 919,
      "Ġfalse": 920,
      "Se": 921,
      "ĠRe": 922,
      "ia": 923,
      "Ġstatic": 924,
      "Ġ%": 925,
      "ob": 926,
      "using": 927,
      "Ġval": 928,
      "ey": 929,
      "mit": 930,
      "const": 931,
      "```": 932,
      "ask": 933,
      "ken": 934,
      "html": 935,
      "ash": 936,
      "ava": 937,
      "';": 938,
      "pect": 939,
      "Ġcomp": 940,
      "().": 941,
      "public": 942,
      "Error": 943,
      "urrent": 944,
      "Par": 945,
      "AN": 946,
      "ib": 947,
      "line": 948,
      "Ġen": 949,
      "ep": 950,
      "github": 951,
      "CT": 952,
      "Get": 953,
      "ma": 954,
      "ton": 955,
      "Ġcol": 956,
      "Ġhe": 957,
      "qual": 958,
      "ES": 959,
      "ne": 960,
      "ence": 961,
      "Ġend": 962,
      "load": 963,
      "Ġprivate": 964,
      "ength": 965,
      "ssage": 966,
      "ĠTh": 967,
      "ĠÐ": 968,
      "Ġusername": 969,
      "ww": 970,
      "Key": 971,
      "':": 972,
      "md": 973,
      "unc": 974,
      "emp": 975,
      "Object": 976,
      "array": 977,
      "idth": 978,
      "Ġ&&": 979,
      "cri": 980,
      "ĠĠĠĠĠĠ": 981,
      "Bu": 982,
      "url": 983,
      "Ġ->": 984,
      "pos": 985,
      "Ġout": 986,
      "ther": 987,
      "];": 988,
      "ample": 989,
      "ĠJ": 990,
      "File": 991,
      "Ġup": 992,
      "ree": 993,
      "back": 994,
      "Ġhref": 995,
      "onent": 996,
      "py": 997,
      "comp": 998,
      "for": 999,
      "Comp": 1000,
      "ded": 1001,
      "Exception": 1002,
      "ackage": 1003,
      "ptions": 1004,
      "path": 1005,
      "ersion": 1006,
      "odule": 1007,
      "stance": 1008,
      "right": 1009,
      "lay": 1010,
      "****************": 1011,
      "ry": 1012,
      "mand": 1013,
      "ations": 1014,
      "].": 1015,
      "count": 1016,
      "ĉĉĉĉ": 1017,
      "Ġle": 1018,
      "Ġwe": 1019,
      "indow": 1020,
      "time": 1021,
      "arch": 1022,
      "pre": 1023,
      "Test": 1024,
      "arget": 1025,
      "work": 1026,
      "uc": 1027,
      "rame": 1028,
      "It": 1029,
      "RO": 1030,
      "ĊĠĠĠĠĠĠĠĠĠĠĠĠĠĠĠĠĠĠĠĠĠĠĠĠĠĠĠ": 1031,
      "include": 1032,
      "\"\"": 1033,
      "ION": 1034,
      "Ġadd": 1035,
      "fer": 1036,
      "Ġ?": 1037,
      "roll": 1038,
      "ann": 1039,
      "perty": 1040,
      "Ġ/**": 1041,
      "ell": 1042,
      "ME": 1043,
      "Ġ:=": 1044,
      "Ġli": 1045,
      "(),": 1046,
      "Th": 1047,
      "of": 1048,
      "Text": 1049,
      "ual": 1050,
      "ULL": 1051,
      "());": 1052,
      "ues": 1053,
      "ãĢ": 1054,
      "sum": 1055,
      "ifi": 1056,
      "ific": 1057,
      "util": 1058,
      "Ð¾": 1059,
      "ock": 1060,
      "Time": 1061,
      "An": 1062,
      "loat": 1063,
      "Ġu": 1064,
      "++": 1065,
      "ount": 1066,
      "Ġerror": 1067,
      "rite": 1068,
      "čĊĠĠĠĠĠĠĠĠĠĠĠ": 1069,
      "ream": 1070,
      "ool": 1071,
      "ound": 1072,
      "ting": 1073,
      "Ġresult": 1074,
      "che": 1075,
      "index": 1076,
      "mary": 1077,
      "rray": 1078,
      "Un": 1079,
      "='": 1080,
      "Config": 1081,
      "ake": 1082,
      "ĊĊĠĠĠĠĠĠĠĠĠĠĠ": 1083,
      "icense": 1084,
      "rap": 1085,
      "UT": 1086,
      "play": 1087,
      "ps": 1088,
      "View": 1089,
      "view": 1090,
      "lean": 1091,
      "çļ": 1092,
      "ie": 1093,
      "At": 1094,
      "State": 1095,
      "çļĦ": 1096,
      "from": 1097,
      "Ġbu": 1098,
      "ameter": 1099,
      "px": 1100,
      "Ðµ": 1101,
      "ody": 1102,
      "By": 1103,
      "essage": 1104,
      "Ġorg": 1105,
      "late": 1106,
      "org": 1107,
      "ĊĠĠĠĠĠĠĠĠĠĠĠĠĠ": 1108,
      "ces": 1109,
      "Ġ);": 1110,
      "ark": 1111,
      "čĊĉ": 1112,
      "item": 1113,
      "Item": 1114,
      "itial": 1115,
      "red": 1116,
      "AS": 1117,
      "Ġwill": 1118,
      "ilter": 1119,
      "Ġ-->": 1120,
      "Add": 1121,
      "IC": 1122,
      "Request": 1123,
      "Ġser": 1124,
      "--------------------------------": 1125,
      "ocument": 1126,
      "/*": 1127,
      "ector": 1128,
      "lete": 1129,
      "map": 1130,
      "word": 1131,
      "._": 1132,
      "sub": 1133,
      "void": 1134,
      "ync": 1135,
      "irst": 1136,
      "Ġ**": 1137,
      "Ġro": 1138,
      "Info": 1139,
      "ï¼Į": 1140,
      "Ġ});": 1141,
      "Ġapp": 1142,
      "ffer": 1143,
      "function": 1144,
      "ise": 1145,
      "pen": 1146,
      "Ð°": 1147,
      "umn": 1148,
      "ait": 1149,
      "args": 1150,
      "input": 1151,
      "Ġcase": 1152,
      "Ġtime": 1153,
      "tribut": 1154,
      "Ġerr": 1155,
      "])": 1156,
      "irect": 1157,
      "FF": 1158,
      "ng": 1159,
      "action": 1160,
      "ute": 1161,
      "////////": 1162,
      "lection": 1163,
      "inter": 1164,
      "ify": 1165,
      "lob": 1166,
      "Event": 1167,
      "Ġlist": 1168,
      "gist": 1169,
      "oint": 1170,
      "ook": 1171,
      "cc": 1172,
      "Ġpr": 1173,
      "son": 1174,
      "Ġfinal": 1175,
      "Ġ__": 1176,
      "())": 1177,
      "Ġhave": 1178,
      "face": 1179,
      "config": 1180,
      "((": 1181,
      "PI": 1182,
      "space": 1183,
      "model": 1184,
      "struct": 1185,
      "by": 1186,
      "Ġall": 1187,
      "Ġne": 1188,
      "ĠSystem": 1189,
      "ature": 1190,
      "order": 1191,
      "ca": 1192,
      "Message": 1193,
      "label": 1194,
      "Field": 1195,
      "ĠLicense": 1196,
      "[]": 1197,
      "...": 1198,
      "ĠNULL": 1199,
      "'s": 1200,
      "Service": 1201,
      "ler": 1202,
      "ride": 1203,
      "rit": 1204,
      "AC": 1205,
      "uble": 1206,
      "Sh": 1207,
      "AD": 1208,
      "ized": 1209,
      "opy": 1210,
      "ich": 1211,
      "OT": 1212,
      "CO": 1213,
      "rol": 1214,
      "sponse": 1215,
      "','": 1216,
      "Ġassert": 1217,
      "ates": 1218,
      "db": 1219,
      "Ġimport": 1220,
      "Ġkey": 1221,
      "link": 1222,
      "vel": 1223,
      "Ġrequire": 1224,
      "Map": 1225,
      "not": 1226,
      "ager": 1227,
      "Ġlet": 1228,
      "ĠĠĠĠĠĠĠĠĠĠĠĠĠĠĠĠĠĠĠĠĠĠĠĠĠĠĠĠĠĠĠĠ": 1229,
      "Node": 1230,
      "mon": 1231,
      "uration": 1232,
      "Path": 1233,
      "query": 1234,
      "ET": 1235,
      "Ġdis": 1236,
      "Context": 1237,
      "cre": 1238,
      "pes": 1239,
      "gle": 1240,
      "Code": 1241,
      "ĠK": 1242,
      "print": 1243,
      "ning": 1244,
      "\"></": 1245,
      "ick": 1246,
      "fe": 1247,
      "Ġstd": 1248,
      "ens": 1249,
      "led": 1250,
      "Com": 1251,
      "define": 1252,
      "mb": 1253,
      "cript": 1254,
      "ĠIN": 1255,
      "api": 1256,
      "Qu": 1257,
      "åı": 1258,
      "User": 1259,
      "Form": 1260,
      "čĊĠ": 1261,
      "Model": 1262,
      "Ġdefault": 1263,
      "Ġlog": 1264,
      "sed": 1265,
      "ally": 1266,
      "âĢ": 1267,
      "reak": 1268,
      "Size": 1269,
      "rg": 1270,
      "node": 1271,
      "Man": 1272,
      "ok": 1273,
      "};": 1274,
      "Ġuser": 1275,
      "Ġ/*": 1276,
      "ĠSt": 1277,
      "Ġso": 1278,
      "json": 1279,
      "Array": 1280,
      "Ġ<<": 1281,
      "UR": 1282,
      "verride": 1283,
      "core": 1284,
      "result": 1285,
      "Ð¸": 1286,
      "try": 1287,
      "ÑĤ": 1288,
      "ponse": 1289,
      "ox": 1290,
      "ys": 1291,
      "table": 1292,
      "Ġ||": 1293,
      "Ġbut": 1294,
      "lication": 1295,
      "img": 1296,
      "########": 1297,
      "================": 1298,
      "cal": 1299,
      "ĠEx": 1300,
      "Index": 1301,
      "Ġpl": 1302,
      "dis": 1303,
      "content": 1304,
      "={": 1305,
      "App": 1306,
      "Ġno": 1307,
      "Ġz": 1308,
      "IS": 1309,
      "ee": 1310,
      "state": 1311,
      "raw": 1312,
      "Ġper": 1313,
      "pi": 1314,
      "create": 1315,
      "func": 1316,
      "net": 1317,
      "uto": 1318,
      "Ġobject": 1319,
      "Ġnil": 1320,
      "PE": 1321,
      "mat": 1322,
      "LO": 1323,
      "oolean": 1324,
      "Element": 1325,
      "fl": 1326,
      "Ġì": 1327,
      "TR": 1328,
      "Ã©": 1329,
      "ĠPro": 1330,
      "ilder": 1331,
      "ĊĊĉ": 1332,
      "title": 1333,
      "php": 1334,
      "lease": 1335,
      "AB": 1336,
      "package": 1337,
      "The": 1338,
      "ics": 1339,
      "length": 1340,
      "ateg": 1341,
      "Equal": 1342,
      "Ġrequest": 1343,
      "enc": 1344,
      "cond": 1345,
      "valid": 1346,
      "ä»": 1347,
      "'t": 1348,
      "He": 1349,
      "/**": 1350,
      "di": 1351,
      "sign": 1352,
      "Log": 1353,
      "Ġsize": 1354,
      "Not": 1355,
      "ĠCon": 1356,
      "info": 1357,
      "ternal": 1358,
      "Class": 1359,
      "\"><": 1360,
      "Ġcode": 1361,
      "ices": 1362,
      "ED": 1363,
      "Ġany": 1364,
      "no": 1365,
      "Def": 1366,
      "Ġtext": 1367,
      "ainer": 1368,
      "ĠThis": 1369,
      "Ġchar": 1370,
      "ta": 1371,
      "ative": 1372,
      "wh": 1373,
      "upport": 1374,
      "request": 1375,
      "export": 1376,
      "Ġconfig": 1377,
      "Ġimp": 1378,
      "lib": 1379,
      "FO": 1380,
      "Ġsub": 1381,
      "group": 1382,
      "ql": 1383,
      "start": 1384,
      "andle": 1385,
      "summary": 1386,
      "ank": 1387,
      "[\"": 1388,
      "({": 1389,
      "Ġyour": 1390,
      "ush": 1391,
      "az": 1392,
      "arent": 1393,
      "Ġspec": 1394,
      "uthor": 1395,
      "ĊĠĠĠĠĠĠĠĠĠĠĠĠĠĠĠĠĠĠĠĠĠĠĠĠĠĠĠĠĠĠĠ": 1396,
      "Ċĉĉĉĉĉ": 1397,
      "press": 1398,
      "we": 1399,
      "ld": 1400,
      "Ġjava": 1401,
      "the": 1402,
      "ner": 1403,
      "ustom": 1404,
      "Up": 1405,
      "roller": 1406,
      "duct": 1407,
      "ĠGet": 1408,
      "Ġwork": 1409,
      "ING": 1410,
      "ider": 1411,
      "top": 1412,
      "Result": 1413,
      "Ġshould": 1414,
      "ware": 1415,
      "Response": 1416,
      "cept": 1417,
      "MA": 1418,
      "Ġab": 1419,
      "Val": 1420,
      "Ġhas": 1421,
      "enter": 1422,
      "Ġ()": 1423,
      "CH": 1424,
      "TO": 1425,
      "Ġpre": 1426,
      "SER": 1427,
      "do": 1428,
      "Ġwhen": 1429,
      "UN": 1430,
      "Ġmethod": 1431,
      "ĠY": 1432,
      "ags": 1433,
      "scription": 1434,
      "Ġstyle": 1435,
      "Of": 1436,
      "Ġarray": 1437,
      "Int": 1438,
      "Ð½": 1439,
      "Ġthrow": 1440,
      "Ġrun": 1441,
      "script": 1442,
      "Ġexpect": 1443,
      "'),": 1444,
      "Ġ(!": 1445,
      "doc": 1446,
      "Ġinter": 1447,
      "ts": 1448,
      "Ġac": 1449,
      "mis": 1450,
      "Me": 1451,
      "temp": 1452,
      "IG": 1453,
      "message": 1454,
      "andler": 1455,
      "ENT": 1456,
      "mage": 1457,
      "Ġinst": 1458,
      "ined": 1459,
      "base": 1460,
      "lick": 1461,
      "nd": 1462,
      "fore": 1463,
      "åĪ": 1464,
      "\"]": 1465,
      "Des": 1466,
      "Ġext": 1467,
      "bug": 1468,
      "ãĢĤ": 1469,
      "Ġnumber": 1470,
      "MP": 1471,
      "max": 1472,
      "tribute": 1473,
      "../../": 1474,
      "Ġ+=": 1475,
      "ension": 1476,
      "old": 1477,
      "EX": 1478,
      "\",\"": 1479,
      "ams": 1480,
      "æľ": 1481,
      "As": 1482,
      "Be": 1483,
      "IL": 1484,
      "ĠĠĠĠĠĠĠĠĠĠĠ": 1485,
      "enu": 1486,
      "Ġ};": 1487,
      "cord": 1488,
      "Ġprint": 1489,
      "ses": 1490,
      "object": 1491,
      "Ġmessage": 1492,
      "Ġusing": 1493,
      "Le": 1494,
      "Ġcall": 1495,
      "Ġstart": 1496,
      "ible": 1497,
      "nection": 1498,
      "Ġ]": 1499,
      "tx": 1500,
      "On": 1501,
      "###": 1502,
      "Client": 1503,
      "Ċĉĉĉĉĉĉ": 1504,
      "ÑĢ": 1505,
      "Ġcreate": 1506,
      "color": 1507,
      "\\\"": 1508,
      "nb": 1509,
      "ends": 1510,
      "Ġread": 1511,
      "field": 1512,
      "point": 1513,
      "round": 1514,
      "over": 1515,
      "www": 1516,
      "Ð¾Ð": 1517,
      "move": 1518,
      "df": 1519,
      "äº": 1520,
      "box": 1521,
      "Ġversion": 1522,
      "Al": 1523,
      "Ġcheck": 1524,
      "cho": 1525,
      "its": 1526,
      "true": 1527,
      "){": 1528,
      "Out": 1529,
      "Color": 1530,
      "ĠDe": 1531,
      "Ġwhich": 1532,
      "Ġinput": 1533,
      "itor": 1534,
      "status": 1535,
      "Ġpath": 1536,
      "dir": 1537,
      "num": 1538,
      "Ñģ": 1539,
      "block": 1540,
      "Ġob": 1541,
      "gin": 1542,
      "Or": 1543,
      "tn": 1544,
      "post": 1545,
      "ade": 1546,
      "Ġ\"\"\"": 1547,
      "iable": 1548,
      "Ġunder": 1549,
      "std": 1550,
      "Status": 1551,
      "Count": 1552,
      "Ġcl": 1553,
      "ails": 1554,
      "default": 1555,
      "cur": 1556,
      "Ġchange": 1557,
      "ov": 1558,
      "tings": 1559,
      "Ġnode": 1560,
      "body": 1561,
      "}}": 1562,
      "Date": 1563,
      "Ġad": 1564,
      "Ġcurrent": 1565,
      "af": 1566,
      "ik": 1567,
      "trans": 1568,
      "With": 1569,
      "bl": 1570,
      "check": 1571,
      "ale": 1572,
      "Ġmodel": 1573,
      "til": 1574,
      "uccess": 1575,
      "ected": 1576,
      "---": 1577,
      "Ġbool": 1578,
      ">(": 1579,
      "For": 1580,
      "Ġsrc": 1581,
      "Group": 1582,
      "otal": 1583,
      "icon": 1584,
      "event": 1585,
      "ĊĠĠĠĠĠĠ": 1586,
      "./": 1587,
      "ĠTr": 1588,
      "ugin": 1589,
      "Manager": 1590,
      "osition": 1591,
      "static": 1592,
      "lose": 1593,
      "ren": 1594,
      "annel": 1595,
      "utton": 1596,
      "Ã¡": 1597,
      "client": 1598,
      "ical": 1599,
      "lang": 1600,
      "CL": 1601,
      "assword": 1602,
      "icro": 1603,
      "reg": 1604,
      "sw": 1605,
      "lobal": 1606,
      "man": 1607,
      "INFO": 1608,
      "Ac": 1609,
      "tes": 1610,
      "Ġone": 1611,
      "char": 1612,
      "čĊĠĠĠĠĠĠĠĠĠĠĠĠĠĠĠ": 1613,
      "Ġtry": 1614,
      "System": 1615,
      "Ġwas": 1616,
      "Table": 1617,
      "ĠX": 1618,
      "mt": 1619,
      "Ġfield": 1620,
      "Ġstate": 1621,
      "ution": 1622,
      "Ġother": 1623,
      "Loc": 1624,
      "!--": 1625,
      "atab": 1626,
      "Ġ[]": 1627,
      "gister": 1628,
      "ender": 1629,
      "Input": 1630,
      "AG": 1631,
      "select": 1632,
      "ient": 1633,
      "src": 1634,
      "åĲ": 1635,
      "Ġthen": 1636,
      "Ġcontext": 1637,
      "older": 1638,
      "style": 1639,
      "Is": 1640,
      "Ġitem": 1641,
      "çĶ": 1642,
      "Query": 1643,
      "Ġbreak": 1644,
      "vert": 1645,
      "Ġline": 1646,
      "roid": 1647,
      "Ġmay": 1648,
      "Ġsome": 1649,
      "Ġtrans": 1650,
      "sole": 1651,
      "bar": 1652,
      "čĊĉĉ": 1653,
      "button": 1654,
      "page": 1655,
      "å®": 1656,
      "Ġarg": 1657,
      "ified": 1658,
      "mpty": 1659,
      "width": 1660,
      "thon": 1661,
      "Inter": 1662,
      "module": 1663,
      "format": 1664,
      "png": 1665,
      "(&": 1666,
      "Property": 1667,
      "ization": 1668,
      "{{": 1669,
      "ater": 1670,
      "Ġindex": 1671,
      "nbsp": 1672,
      "à¸": 1673,
      "Ġused": 1674,
      "Image": 1675,
      "ĠĊ": 1676,
      "ux": 1677,
      "åħ": 1678,
      "${": 1679,
      "Ġent": 1680,
      "pert": 1681,
      "serv": 1682,
      "init": 1683,
      "Window": 1684,
      "uage": 1685,
      "ĠNone": 1686,
      "version": 1687,
      "len": 1688,
      "Ġstruct": 1689,
      "Ġmy": 1690,
      "ĠIf": 1691,
      "HE": 1692,
      "open": 1693,
      "Ġdist": 1694,
      "oogle": 1695,
      "ML": 1696,
      "][": 1697,
      "Ġhttps": 1698,
      "Ġ/>": 1699,
      "DO": 1700,
      "ĠList": 1701,
      "wait": 1702,
      "ĠUn": 1703,
      "ĊĊĠĠĠĠĠ": 1704,
      "soft": 1705,
      "atabase": 1706,
      "ypes": 1707,
      "Ġevent": 1708,
      "ra": 1709,
      "null": 1710,
      "aster": 1711,
      "Ġbase": 1712,
      "append": 1713,
      "vide": 1714,
      "ä½": 1715,
      "Ġoutput": 1716,
      "local": 1717,
      "è¿": 1718,
      "current": 1719,
      "actory": 1720,
      "ote": 1721,
      "mission": 1722,
      "Box": 1723,
      "go": 1724,
      "SS": 1725,
      "ui": 1726,
      "ĠClass": 1727,
      "Action": 1728,
      "ish": 1729,
      "TY": 1730,
      "TE": 1731,
      "Button": 1732,
      "Ġact": 1733,
      "Ġ===": 1734,
      "Component": 1735,
      "Sub": 1736,
      "Ġ,": 1737,
      "ameters": 1738,
      "off": 1739,
      "DI": 1740,
      "ply": 1741,
      "CON": 1742,
      "Ġuint": 1743,
      "Dis": 1744,
      "ments": 1745,
      ".</": 1746,
      "Util": 1747,
      "abled": 1748,
      "case": 1749,
      "\\\\": 1750,
      "iter": 1751,
      "sm": 1752,
      "ĠAN": 1753,
      "ape": 1754,
      "sing": 1755,
      "âĶ": 1756,
      "ollow": 1757,
      "ors": 1758,
      "pend": 1759,
      "Ġpart": 1760,
      "ating": 1761,
      "oin": 1762,
      "frame": 1763,
      "ĊĠĠĠĠĠĠĠĠĠĠĠĠĠĠĠĠĠ": 1764,
      "ground": 1765,
      "cs": 1766,
      "OL": 1767,
      "ptr": 1768,
      "Ġback": 1769,
      "})": 1770,
      "BU": 1771,
      "down": 1772,
      "Ġonly": 1773,
      "plo": 1774,
      "ATE": 1775,
      "ĠSet": 1776,
      "eturn": 1777,
      "Base": 1778,
      "option": 1779,
      "Ġtarget": 1780,
      "Token": 1781,
      "Arg": 1782,
      "perties": 1783,
      "lear": 1784,
      "Ad": 1785,
      "gram": 1786,
      "idd": 1787,
      "Ġmax": 1788,
      "Lo": 1789,
      "Ġus": 1790,
      "my": 1791,
      "uint": 1792,
      "bin": 1793,
      "Trans": 1794,
      "Content": 1795,
      "rl": 1796,
      "TH": 1797,
      "Ġtemp": 1798,
      "Ġtitle": 1799,
      "formation": 1800,
      "raph": 1801,
      "Ġimage": 1802,
      "%%": 1803,
      "ions": 1804,
      "server": 1805,
      "Override": 1806,
      "ference": 1807,
      "Ġresponse": 1808,
      "Ġ})": 1809,
      "Change": 1810,
      "From": 1811,
      "Builder": 1812,
      "Ġcontent": 1813,
      "with": 1814,
      "du": 1815,
      "LI": 1816,
      "Ġgener": 1817,
      "`,": 1818,
      "ĊĠĠĠĠĠĠĠĠĠĠĠĠ": 1819,
      "mod": 1820,
      "igh": 1821,
      "proto": 1822,
      "lin": 1823,
      "ttp": 1824,
      "Instance": 1825,
      "orage": 1826,
      "New": 1827,
      "find": 1828,
      "Line": 1829,
      "da": 1830,
      "any": 1831,
      "float": 1832,
      "').": 1833,
      "context": 1834,
      "********************************": 1835,
      "FI": 1836,
      "ategory": 1837,
      "write": 1838,
      "Pl": 1839,
      "Ġdocument": 1840,
      "NA": 1841,
      "layer": 1842,
      "head": 1843,
      "True": 1844,
      "Act": 1845,
      "mark": 1846,
      "æĸ": 1847,
      "build": 1848,
      "Ġ((": 1849,
      "main": 1850,
      "Ġmore": 1851,
      "Per": 1852,
      "mem": 1853,
      "teger": 1854,
      "gt": 1855,
      "å¤": 1856,
      "web": 1857,
      "perator": 1858,
      "Lay": 1859,
      "INT": 1860,
      "gl": 1861,
      "PO": 1862,
      "Ġap": 1863,
      "vir": 1864,
      "Ġmin": 1865,
      "Ġë": 1866,
      "FA": 1867,
      "Ġneed": 1868,
      "Call": 1869,
      "Gener": 1870,
      "Ġel": 1871,
      "call": 1872,
      "Ċĉĉĉĉĉĉĉĉ": 1873,
      "java": 1874,
      "posit": 1875,
      "source": 1876,
      "Ġtable": 1877,
      "place": 1878,
      "è¯": 1879,
      "Stream": 1880,
      "icrosoft": 1881,
      "Ġwidth": 1882,
      "Ent": 1883,
      "ification": 1884,
      "Method": 1885,
      "false": 1886,
      "Ġsp": 1887,
      "flow": 1888,
      "sg": 1889,
      "ìĿ": 1890,
      "ci": 1891,
      "left": 1892,
      "vis": 1893,
      "Ġrel": 1894,
      "ĠOR": 1895,
      "update": 1896,
      "vider": 1897,
      "Null": 1898,
      "orre": 1899,
      "æĺ": 1900,
      "Var": 1901,
      "ĠCh": 1902,
      "itialized": 1903,
      "les": 1904,
      "Ġ($": 1905,
      "irectory": 1906,
      "<?": 1907,
      "ĊĠĠĠĠĠĠĠĠĠĠĠĠĠĠĠĠĠĠĠĠĠĠĠĠĠĠĠĠĠĠĠĠĠĠĠ": 1908,
      "uid": 1909,
      "AP": 1910,
      "ility": 1911,
      "\").": 1912,
      "itch": 1913,
      "ifier": 1914,
      "Imp": 1915,
      "Ġfloat": 1916,
      "Ġag": 1917,
      "ffff": 1918,
      "ular": 1919,
      "dev": 1920,
      "eature": 1921,
      "Ġboolean": 1922,
      "section": 1923,
      "uper": 1924,
      "search": 1925,
      "Select": 1926,
      "lex": 1927,
      "ains": 1928,
      "ftware": 1929,
      "Ġhttp": 1930,
      "ĠQ": 1931,
      "Ġsource": 1932,
      "});": 1933,
      "Controller": 1934,
      "lp": 1935,
      "Number": 1936,
      "tected": 1937,
      "iled": 1938,
      "fa": 1939,
      "Create": 1940,
      ":\"": 1941,
      "////////////////": 1942,
      "rid": 1943,
      "TI": 1944,
      "andom": 1945,
      "ove": 1946,
      "All": 1947,
      "Ġcopy": 1948,
      "Ġmake": 1949,
      "Ġfirst": 1950,
      "email": 1951,
      "Ġnum": 1952,
      "Ed": 1953,
      "ear": 1954,
      "ĠRes": 1955,
      "à¦": 1956,
      "Ġpage": 1957,
      "SERT": 1958,
      "resent": 1959,
      "ssion": 1960,
      "ared": 1961,
      "Point": 1962,
      "thing": 1963,
      "Ġlong": 1964,
      "æĪ": 1965,
      "cope": 1966,
      "run": 1967,
      "loud": 1968,
      ",'": 1969,
      "OP": 1970,
      "HT": 1971,
      "buf": 1972,
      "CE": 1973,
      "ays": 1974,
      "*/": 1975,
      "Ġdoes": 1976,
      "token": 1977,
      "method": 1978,
      "SON": 1979,
      "idget": 1980,
      "anc": 1981,
      "pc": 1982,
      "Page": 1983,
      "Ġbuild": 1984,
      "Handler": 1985,
      "VER": 1986,
      "med": 1987,
      "Ġiss": 1988,
      "Ġcolor": 1989,
      "ats": 1990,
      "Ġupdate": 1991,
      "oot": 1992,
      "rix": 1993,
      "ĠTitle": 1994,
      "next": 1995,
      "rop": 1996,
      "Ġfollow": 1997,
      "Ġinstance": 1998,
      "require": 1999,
      "target": 2000,
      "Ġurl": 2001,
      "++)": 2002,
      "response": 2003,
      "]);": 2004,
      "ĠCont": 2005,
      "Ġgo": 2006,
      "fter": 2007,
      "æķ": 2008,
      "sk": 2009,
      "Ġmap": 2010,
      "ssert": 2011,
      "Ġinto": 2012,
      "ĠApp": 2013,
      "///": 2014,
      "DB": 2015,
      "Ġelement": 2016,
      "air": 2017,
      "UE": 2018,
      "ÃŃ": 2019,
      "adata": 2020,
      "sl": 2021,
      "Ã¼": 2022,
      ">>": 2023,
      "tract": 2024,
      "strong": 2025,
      "Str": 2026,
      "ename": 2027,
      "sert": 2028,
      "namespace": 2029,
      "Buffer": 2030,
      "Ġawait": 2031,
      "uch": 2032,
      "pository": 2033,
      "([": 2034,
      "Ġcommand": 2035,
      "push": 2036,
      "Command": 2037,
      "Ġthere": 2038,
      "Ġcre": 2039,
      "Ġfl": 2040,
      "Ġextends": 2041,
      "No": 2042,
      "aint": 2043,
      "Source": 2044,
      "Options": 2045,
      "IP": 2046,
      "sets": 2047,
      "ĠIt": 2048,
      "filter": 2049,
      "ĠFile": 2050,
      "output": 2051,
      "ĠĠĠĠĠĠĠĠĠ": 2052,
      "Ġ::": 2053,
      "hed": 2054,
      "Ġ}}": 2055,
      "/>": 2056,
      "has": 2057,
      "riter": 2058,
      "peration": 2059,
      "Ġclient": 2060,
      "Default": 2061,
      "US": 2062,
      "~~": 2063,
      "ift": 2064,
      "Ġmod": 2065,
      "pri": 2066,
      "host": 2067,
      "part": 2068,
      "rt": 2069,
      "ings": 2070,
      "anguage": 2071,
      "private": 2072,
      "Ð»": 2073,
      "ĠSer": 2074,
      "Ġimplement": 2075,
      "signed": 2076,
      "Server": 2077,
      "lem": 2078,
      "GL": 2079,
      "Version": 2080,
      "tom": 2081,
      "Ġdouble": 2082,
      "nect": 2083,
      "Ġqu": 2084,
      "obj": 2085,
      "endif": 2086,
      "ĠĠĠĠĠĠĠĠĠĠĠĠĠĠĠ": 2087,
      "xf": 2088,
      "Ġoptions": 2089,
      "Ġdi": 2090,
      "Ġproject": 2091,
      "olic": 2092,
      "msg": 2093,
      "license": 2094,
      "Ġlen": 2095,
      "css": 2096,
      "ume": 2097,
      "Ġ;": 2098,
      "Ref": 2099,
      "tual": 2100,
      "Ġvalid": 2101,
      "Ġvalues": 2102,
      "vo": 2103,
      "Ġpo": 2104,
      "cd": 2105,
      "čĊĠĠĠĠĠ": 2106,
      "åĬ": 2107,
      "ormal": 2108,
      "Ġright": 2109,
      "Ġfa": 2110,
      "uster": 2111,
      "ctx": 2112,
      "ret": 2113,
      "çĶ¨": 2114,
      "Ġnp": 2115,
      "Mode": 2116,
      "End": 2117,
      "Ġco": 2118,
      "Ġar": 2119,
      "imple": 2120,
      "apache": 2121,
      "Ã³": 2122,
      "wo": 2123,
      "OF": 2124,
      "ĊĊĠĠĠĠĠĠĠĠĠĠĠĠĠĠĠ": 2125,
      "ene": 2126,
      "header": 2127,
      "ĠTest": 2128,
      "Ä±": 2129,
      "ities": 2130,
      "ources": 2131,
      "\"),": 2132,
      "author": 2133,
      "SC": 2134,
      "Ġ['": 2135,
      "Hel": 2136,
      "Ġed": 2137,
      "untime": 2138,
      "ower": 2139,
      "service": 2140,
      "env": 2141,
      "SI": 2142,
      "Ġoff": 2143,
      "Ġlike": 2144,
      "det": 2145,
      "Ġaction": 2146,
      "Ġrequired": 2147,
      "Start": 2148,
      "apt": 2149,
      "Det": 2150,
      "Fl": 2151,
      "\"))": 2152,
      "last": 2153,
      "Column": 2154,
      "params": 2155,
      "unk": 2156,
      "Check": 2157,
      "rows": 2158,
      "tag": 2159,
      "Ġserver": 2160,
      "Pr": 2161,
      "AA": 2162,
      "Frame": 2163,
      "ABLE": 2164,
      "EL": 2165,
      "QL": 2166,
      "argin": 2167,
      "ero": 2168,
      "anel": 2169,
      "Ġret": 2170,
      "ĠSe": 2171,
      "Ġ{}": 2172,
      "store": 2173,
      "Ġwhere": 2174,
      "pression": 2175,
      "lt": 2176,
      "Ġopen": 2177,
      "aph": 2178,
      "inition": 2179,
      "Cl": 2180,
      "Ġblock": 2181,
      "omain": 2182,
      "Ġprocess": 2183,
      "Sp": 2184,
      "cf": 2185,
      "Label": 2186,
      "nav": 2187,
      "number": 2188,
      "Ġrange": 2189,
      "Ġdistribut": 2190,
      "(_": 2191,
      "now": 2192,
      "google": 2193,
      "Ġargs": 2194,
      "gener": 2195,
      "CK": 2196,
      "fr": 2197,
      "docs": 2198,
      "And": 2199,
      "options": 2200,
      ")]": 2201,
      "defined": 2202,
      "Ġcal": 2203,
      "font": 2204,
      "ĊĠĠĠĠĊĠĠĠ": 2205,
      "ĠInitialized": 2206,
      "board": 2207,
      "Ġsupport": 2208,
      "Ġselect": 2209,
      "ĠObject": 2210,
      "'],": 2211,
      "Ġlocal": 2212,
      "bot": 2213,
      "ĠCON": 2214,
      "mail": 2215,
      "íķ": 2216,
      "cp": 2217,
      "CC": 2218,
      "ivity": 2219,
      "ERR": 2220,
      "Ġview": 2221,
      "Format": 2222,
      "xy": 2223,
      "Ġformat": 2224,
      "ym": 2225,
      "Url": 2226,
      "čĊĠĠĠĠ": 2227,
      "parse": 2228,
      "AM": 2229,
      "Attribute": 2230,
      "################": 2231,
      "Factory": 2232,
      "Http": 2233,
      "Entity": 2234,
      "ç»": 2235,
      "Ġwhile": 2236,
      "brary": 2237,
      "opt": 2238,
      "Listener": 2239,
      "Ġsc": 2240,
      "KE": 2241,
      "ĠAdd": 2242,
      "čĊčĊĠĠĠ": 2243,
      "entity": 2244,
      "Ġass": 2245,
      "Block": 2246,
      "equal": 2247,
      "Read": 2248,
      "SP": 2249,
      "refer": 2250,
      "first": 2251,
      "Ġform": 2252,
      "Co": 2253,
      "ULT": 2254,
      "stream": 2255,
      "ved": 2256,
      "refix": 2257,
      "ĠOF": 2258,
      "velo": 2259,
      "unit": 2260,
      "Ġdif": 2261,
      "ĠAn": 2262,
      "Ob": 2263,
      "Ġecho": 2264,
      "Task": 2265,
      "images": 2266,
      "åľ": 2267,
      "project": 2268,
      "tt": 2269,
      "ĠComp": 2270,
      "HO": 2271,
      "Collection": 2272,
      "Equals": 2273,
      "very": 2274,
      "graph": 2275,
      "show": 2276,
      "Ġjust": 2277,
      "byte": 2278,
      "....": 2279,
      "gress": 2280,
      "ĠĠĠĠĠĠĠĠĠĠ": 2281,
      "Ġpoint": 2282,
      "Ġauto": 2283,
      "():": 2284,
      "Ġwould": 2285,
      "ĊĠĠĠĠĠĠĠĠĠĠĠĠĠĠĠĠĠĠĠĠĠĠĠĠĠĠĠĠĠĠĠĠĠĠĠĠĠĠĠĠĠĠĠĠĠĠĠĠ": 2286,
      "This": 2287,
      "ä¸Ģ": 2288,
      "sv": 2289,
      "less": 2290,
      "Style": 2291,
      "izer": 2292,
      "Ġfiles": 2293,
      "mut": 2294,
      "ĠDE": 2295,
      "height": 2296,
      "common": 2297,
      "Ġ${": 2298,
      "UI": 2299,
      "Ġlabel": 2300,
      "Ġexample": 2301,
      "Ġstatus": 2302,
      "eta": 2303,
      "Mem": 2304,
      "Resource": 2305,
      "ialog": 2306,
      "component": 2307,
      "Ġover": 2308,
      "Ġfind": 2309,
      "card": 2310,
      "ump": 2311,
      "arning": 2312,
      "Ġmodule": 2313,
      "spec": 2314,
      "Ġmust": 2315,
      "\".": 2316,
      "admin": 2317,
      "resh": 2318,
      "Output": 2319,
      "Valid": 2320,
      "Ġexec": 2321,
      "mer": 2322,
      "Ġinclude": 2323,
      "utils": 2324,
      "Ġexist": 2325,
      "iven": 2326,
      "æĺ¯": 2327,
      "description": 2328,
      "è®": 2329,
      "ilename": 2330,
      "gn": 2331,
      "ef": 2332,
      "TYPE": 2333,
      "Ġsol": 2334,
      "ALL": 2335,
      "aa": 2336,
      "Ġsee": 2337,
      "etwork": 2338,
      "Configuration": 2339,
      "pg": 2340,
      "rad": 2341,
      "inst": 2342,
      "Ġla": 2343,
      "Ã§": 2344,
      "TP": 2345,
      "Update": 2346,
      "ĠAPI": 2347,
      "IM": 2348,
      "æĹ": 2349,
      "ailable": 2350,
      "Ġman": 2351,
      "Us": 2352,
      "Ġalso": 2353,
      "IO": 2354,
      "Ġos": 2355,
      "ched": 2356,
      "change": 2357,
      "leg": 2358,
      "čĊčĊ": 2359,
      "viron": 2360,
      "Ġdate": 2361,
      "Layout": 2362,
      "ITE": 2363,
      "UM": 2364,
      "Filter": 2365,
      "Ġmem": 2366,
      "è¡": 2367,
      "Row": 2368,
      "ern": 2369,
      "Ġgroup": 2370,
      "Ġnext": 2371,
      "Ġprovide": 2372,
      "expect": 2373,
      "ines": 2374,
      "Link": 2375,
      ",\"": 2376,
      "Ġfont": 2377,
      "æķ°": 2378,
      "Ġjson": 2379,
      "cket": 2380,
      "Ġpost": 2381,
      "{\"": 2382,
      "ency": 2383,
      "river": 2384,
      "Ġcatch": 2385,
      "adding": 2386,
      "ĠNOT": 2387,
      "xx": 2388,
      "ah": 2389,
      "Sto": 2390,
      "Sc": 2391,
      "ants": 2392,
      "STR": 2393,
      "Ġ>=": 2394,
      "ins": 2395,
      "Length": 2396,
      "aded": 2397,
      "PRO": 2398,
      "np": 2399,
      "åŃ": 2400,
      "Ġheight": 2401,
      "template": 2402,
      "instance": 2403,
      "Ġprob": 2404,
      "root": 2405,
      "ĠCopy": 2406,
      "react": 2407,
      "auth": 2408,
      "Ġcount": 2409,
      "chema": 2410,
      "EXT": 2411,
      "ymb": 2412,
      "center": 2413,
      "MO": 2414,
      "attern": 2415,
      ";&": 2416,
      "bit": 2417,
      "req": 2418,
      "Ġlast": 2419,
      "cast": 2420,
      "Ġtoken": 2421,
      "Temp": 2422,
      "vector": 2423,
      "ious": 2424,
      "begin": 2425,
      "ĠData": 2426,
      "URL": 2427,
      "ession": 2428,
      "ĠĠĠĠĠĠĠĠĠĠĠĠ": 2429,
      "UP": 2430,
      "zure": 2431,
      "ĠSh": 2432,
      "bool": 2433,
      "Ġfollowing": 2434,
      "Ġfix": 2435,
      "Control": 2436,
      "Ġ...": 2437,
      "ding": 2438,
      "Types": 2439,
      "pack": 2440,
      "process": 2441,
      "ORT": 2442,
      "Ġissue": 2443,
      "ensor": 2444,
      "ĠEn": 2445,
      "åº": 2446,
      "light": 2447,
      "Ġfound": 2448,
      "property": 2449,
      "Ġ\"/": 2450,
      "ĠVAL": 2451,
      "control": 2452,
      "UB": 2453,
      "Ġsame": 2454,
      "Address": 2455,
      "attr": 2456,
      "ython": 2457,
      "Ġav": 2458,
      "olicy": 2459,
      "ols": 2460,
      "Wh": 2461,
      "Ġinstall": 2462,
      "product": 2463,
      "Ġhere": 2464,
      "cr": 2465,
      "Function": 2466,
      "=>": 2467,
      "udio": 2468,
      "ĠYou": 2469,
      "tributes": 2470,
      "rag": 2471,
      "cription": 2472,
      "sa": 2473,
      "xb": 2474,
      "icle": 2475,
      "other": 2476,
      "quot": 2477,
      "Module": 2478,
      "rypt": 2479,
      "Ġload": 2480,
      "dist": 2481,
      "()->": 2482,
      "Ġnow": 2483,
      "ven": 2484,
      "address": 2485,
      "ĠAS": 2486,
      "Ġquery": 2487,
      "cent": 2488,
      "Ġoption": 2489,
      "Ġinformation": 2490,
      "NAME": 2491,
      "Ã¤": 2492,
      "ĊĠĠĠĠĠĠĠĠĠĠĠĠĠĠĠĠĠĠĠĠĠĠĠĠĠĠĠĠĠĠĠĠĠĠĠĠĠĠĠ": 2493,
      "VE": 2494,
      "ten": 2495,
      "Rout": 2496,
      "nown": 2497,
      "active": 2498,
      "cy": 2499,
      "ose": 2500,
      "etch": 2501,
      "ĠID": 2502,
      "'.": 2503,
      "åĽ": 2504,
      "Ġref": 2505,
      "ier": 2506,
      "dition": 2507,
      "Ð°Ð": 2508,
      "Back": 2509,
      "exec": 2510,
      "atform": 2511,
      "aj": 2512,
      "Ġasync": 2513,
      "command": 2514,
      "ward": 2515,
      ")(": 2516,
      "ln": 2517,
      "Ġque": 2518,
      "cb": 2519,
      "Ġ],": 2520,
      "ESS": 2521,
      "BUG": 2522,
      "![": 2523,
      "\":\"": 2524,
      "Ġmat": 2525,
      "SH": 2526,
      "Ġ<=": 2527,
      "rapper": 2528,
      "types": 2529,
      "ultip": 2530,
      "Ġeach": 2531,
      "Ġprotected": 2532,
      "ause": 2533,
      "asses": 2534,
      "ãģ®": 2535,
      "gen": 2536,
      "lot": 2537,
      "ĠZ": 2538,
      "Ġshow": 2539,
      "Ġdisplay": 2540,
      "Json": 2541,
      "Off": 2542,
      "lit": 2543,
      "Run": 2544,
      "None": 2545,
      "å°": 2546,
      "=\"#": 2547,
      "join": 2548,
      "Ġmatch": 2549,
      "================================": 2550,
      "stract": 2551,
      "Ġsw": 2552,
      "Write": 2553,
      "Ġorder": 2554,
      "bind": 2555,
      "ĊĊĉĉ": 2556,
      "hel": 2557,
      "files": 2558,
      "element": 2559,
      "ian": 2560,
      "{}": 2561,
      "parent": 2562,
      "Ġpub": 2563,
      "remove": 2564,
      "`.": 2565,
      "Ġconsole": 2566,
      "ffect": 2567,
      "Ġ'',": 2568,
      "fs": 2569,
      "Api": 2570,
      "API": 2571,
      "Ġlink": 2572,
      "Do": 2573,
      "Ñĥ": 2574,
      "ron": 2575,
      "aces": 2576,
      "delete": 2577,
      "btn": 2578,
      "čĊĉĉĉ": 2579,
      "met": 2580,
      "ĠCol": 2581,
      "ging": 2582,
      "å¼": 2583,
      "unter": 2584,
      "Num": 2585,
      "Ġinterface": 2586,
      "RAN": 2587,
      "Provider": 2588,
      "Ġthrows": 2589,
      "Mod": 2590,
      "ns": 2591,
      "orld": 2592,
      "NO": 2593,
      "Ġmain": 2594,
      "Ġcomponent": 2595,
      "åį": 2596,
      "idden": 2597,
      "vices": 2598,
      "dated": 2599,
      "Ġloc": 2600,
      "ring": 2601,
      "Ġbeen": 2602,
      "ready": 2603,
      "Ġ),": 2604,
      "only": 2605,
      "Âł": 2606,
      "WR": 2607,
      "xml": 2608,
      "Web": 2609,
      "Cache": 2610,
      "master": 2611,
      "cat": 2612,
      "Ġsign": 2613,
      "sol": 2614,
      "Ġsuper": 2615,
      "Ġandroid": 2616,
      "ane": 2617,
      "Ġport": 2618,
      "ado": 2619,
      "âĶĢ": 2620,
      "Ġtag": 2621,
      "sql": 2622,
      "apter": 2623,
      "ĊĠĠĠĠĠĠĠĠĠĠ": 2624,
      "Ġallow": 2625,
      "ãĢģ": 2626,
      "Width": 2627,
      "column": 2628,
      "book": 2629,
      "cache": 2630,
      "ĠclassName": 2631,
      "ons": 2632,
      "reen": 2633,
      "ĠTo": 2634,
      "UES": 2635,
      ")))": 2636,
      "ouse": 2637,
      "full": 2638,
      "ĠWh": 2639,
      "double": 2640,
      "Pre": 2641,
      "oto": 2642,
      "ĠFor": 2643,
      "vironment": 2644,
      "Ġabout": 2645,
      "container": 2646,
      "ĠArray": 2647,
      "INSERT": 2648,
      "Tag": 2649,
      "Ġhow": 2650,
      "xe": 2651,
      "ole": 2652,
      "OS": 2653,
      "dt": 2654,
      "Part": 2655,
      "Ġcolumn": 2656,
      "ĠCopyright": 2657,
      "anch": 2658,
      "ĠINTO": 2659,
      "Ġwant": 2660,
      "Header": 2661,
      "structor": 2662,
      "Exec": 2663,
      "Ptr": 2664,
      "location": 2665,
      "Ġver": 2666,
      "Ġem": 2667,
      "Click": 2668,
      "Vis": 2669,
      "Ġpackage": 2670,
      "Level": 2671,
      "----------------------------------------------------------------": 2672,
      "ĠCreate": 2673,
      "Char": 2674,
      "level": 2675,
      "iss": 2676,
      "Ġcorre": 2677,
      "ä¸ª": 2678,
      "ba": 2679,
      "child": 2680,
      "ĠLog": 2681,
      "CTION": 2682,
      "buffer": 2683,
      "Ġsystem": 2684,
      "éĢ": 2685,
      "argument": 2686,
      "Ġtop": 2687,
      "Ġbefore": 2688,
      "Menu": 2689,
      "patch": 2690,
      "side": 2691,
      "Ġweb": 2692,
      "Auth": 2693,
      "ĠUser": 2694,
      "Ġoverride": 2695,
      "make": 2696,
      "Ġph": 2697,
      "close": 2698,
      "ique": 2699,
      "indows": 2700,
      ";</": 2701,
      "Ġvariable": 2702,
      "Ġafter": 2703,
      "tra": 2704,
      "ince": 2705,
      "Ġq": 2706,
      "____": 2707,
      "heet": 2708,
      "EQ": 2709,
      "SET": 2710,
      "irtual": 2711,
      "ãĥ¼": 2712,
      "Ġte": 2713,
      "Ġ$(": 2714,
      "ĠOn": 2715,
      "Ġgiven": 2716,
      "Entry": 2717,
      "je": 2718,
      "position": 2719,
      "Ġrow": 2720,
      "ä¹": 2721,
      "Spec": 2722,
      "''": 2723,
      "Ġ\"\\": 2724,
      "Max": 2725,
      "ĠWe": 2726,
      "ingle": 2727,
      "sd": 2728,
      "send": 2729,
      "VAL": 2730,
      ">,": 2731,
      "ither": 2732,
      "Ġservice": 2733,
      "dict": 2734,
      "present": 2735,
      "ĠPar": 2736,
      "False": 2737,
      "irection": 2738,
      "Ext": 2739,
      "ZE": 2740,
      "Ġlimit": 2741,
      "aining": 2742,
      "Application": 2743,
      "Ġdistributed": 2744,
      "creen": 2745,
      "Position": 2746,
      "Case": 2747,
      "ential": 2748,
      "AY": 2749,
      "stamp": 2750,
      "Ġ('": 2751,
      "her": 2752,
      "čĊĠĠĠĠĠĠĠĠĠĠĠĠĠĠĠĠĠĠĠ": 2753,
      "âĢĻ": 2754,
      "ĠBu": 2755,
      "Ġcur": 2756,
      "ĠVALUES": 2757,
      "MS": 2758,
      "PL": 2759,
      "Ġ<!--": 2760,
      "(*": 2761,
      "ĠReturn": 2762,
      "amb": 2763,
      "Ġposition": 2764,
      "Ġdet": 2765,
      "annot": 2766,
      "æī": 2767,
      "Ġbet": 2768,
      "Utils": 2769,
      "ĠAl": 2770,
      "ĠIS": 2771,
      "asic": 2772,
      "Enum": 2773,
      "tri": 2774,
      "Helper": 2775,
      "ĊĠĠĠĠĠĠĠĠĊĠĠĠĠĠĠĠ": 2776,
      "stri": 2777,
      "cale": 2778,
      "Empty": 2779,
      "ĠCom": 2780,
      "ement": 2781,
      "ĠType": 2782,
      "example": 2783,
      "display": 2784,
      "Ġfilter": 2785,
      "where": 2786,
      "txt": 2787,
      "Ġfn": 2788,
      "ĠPR": 2789,
      "ĠSo": 2790,
      "ĠUp": 2791,
      "Ab": 2792,
      "Const": 2793,
      "Ġwhat": 2794,
      "nder": 2795,
      "Store": 2796,
      "gest": 2797,
      "Rem": 2798,
      "Params": 2799,
      "ĠEX": 2800,
      "apping": 2801,
      "RL": 2802,
      "Ġlook": 2803,
      "GET": 2804,
      "]:": 2805,
      "Ġthan": 2806,
      "Access": 2807,
      "Ñı": 2808,
      "plugin": 2809,
      "task": 2810,
      "If": 2811,
      "ful": 2812,
      "lip": 2813,
      "Ġargument": 2814,
      "Connection": 2815,
      "Ġexpected": 2816,
      "Ġfeature": 2817,
      "Ġdon": 2818,
      "ĠSee": 2819,
      "ily": 2820,
      "Ġproperty": 2821,
      "Ġparams": 2822,
      "?:": 2823,
      "debug": 2824,
      "ëĭ": 2825,
      "document": 2826,
      "Ã¶": 2827,
      "ari": 2828,
      "ulti": 2829,
      "erm": 2830,
      "ynt": 2831,
      "mode": 2832,
      "ĠDate": 2833,
      "Ġes": 2834,
      "Ġspecific": 2835,
      "rel": 2836,
      "Parser": 2837,
      "Ġinitial": 2838,
      "Ph": 2839,
      "Ġits": 2840,
      "ĠTO": 2841,
      "MM": 2842,
      "scribe": 2843,
      "Di": 2844,
      "cle": 2845,
      "Option": 2846,
      "Ġobj": 2847,
      "ÐµÐ": 2848,
      "home": 2849,
      "Ġdown": 2850,
      "Ġchild": 2851,
      "prot": 2852,
      "auto": 2853,
      "Ġreg": 2854,
      "ĊĊĊĊ": 2855,
      "Windows": 2856,
      "values": 2857,
      "exp": 2858,
      "Ġleft": 2859,
      "Ġ?>": 2860,
      "mm": 2861,
      "imer": 2862,
      "framework": 2863,
      "arn": 2864,
      "ynam": 2865,
      "ROM": 2866,
      "session": 2867,
      "ĠĠĠĠĠĠĠĠĠĠĠĠĠ": 2868,
      "Core": 2869,
      "site": 2870,
      "ĠInt": 2871,
      "Ġaccess": 2872,
      "entic": 2873,
      "meta": 2874,
      "ymbol": 2875,
      "ĊĠĠĠĠĠĠĠĠĠĠĠĠĠĠĠĠĠĠĠĠĠ": 2876,
      "Process": 2877,
      "'))": 2878,
      "pub": 2879,
      "Vector": 2880,
      "cor": 2881,
      "save": 2882,
      "lish": 2883,
      "ceiv": 2884,
      "Ġresource": 2885,
      "Ġwrite": 2886,
      "tmp": 2887,
      "Order": 2888,
      "Ġwrit": 2889,
      "romise": 2890,
      ")</": 2891,
      "match": 2892,
      ">&": 2893,
      "Container": 2894,
      "Ġwithout": 2895,
      "PRE": 2896,
      "offset": 2897,
      "acter": 2898,
      "Hash": 2899,
      "Draw": 2900,
      "bb": 2901,
      "Ġhandle": 2902,
      "Ġ(\"": 2903,
      "Ċĉĉĉĉĉĉĉ": 2904,
      "hash": 2905,
      "ĠTHE": 2906,
      "Return": 2907,
      "cul": 2908,
      "ATION": 2909,
      "idx": 2910,
      "password": 2911,
      "FAULT": 2912,
      "DEBUG": 2913,
      "Bar": 2914,
      "ĠAs": 2915,
      "<!--": 2916,
      "Cell": 2917,
      "Ġtask": 2918,
      "Ñĭ": 2919,
      "erson": 2920,
      "utor": 2921,
      "Ġrender": 2922,
      "dat": 2923,
      "åľ¨": 2924,
      "utom": 2925,
      "Ã£": 2926,
      "ches": 2927,
      "Ġexp": 2928,
      "git": 2929,
      "Icon": 2930,
      "XX": 2931,
      "ITY": 2932,
      "TER": 2933,
      "[:": 2934,
      "Ġgr": 2935,
      "DD": 2936,
      "Target": 2937,
      ">();": 2938,
      "olve": 2939,
      "Ġlanguage": 2940,
      "Location": 2941,
      "xa": 2942,
      "ling": 2943,
      "Min": 2944,
      "Ġmode": 2945,
      "ERROR": 2946,
      "uction": 2947,
      "Ġopt": 2948,
      "device": 2949,
      "Child": 2950,
      "Ġsoftware": 2951,
      "Ġparent": 2952,
      "Ġ*)": 2953,
      "align": 2954,
      "quence": 2955,
      "click": 2956,
      "dic": 2957,
      "$(": 2958,
      "Ġexcept": 2959,
      "Serial": 2960,
      "iff": 2961,
      "mount": 2962,
      "printf": 2963,
      "system": 2964,
      "ru": 2965,
      "OK": 2966,
      "ugh": 2967,
      "ze": 2968,
      "ĠTrue": 2969,
      "empty": 2970,
      "IF": 2971,
      "handle": 2972,
      "CP": 2973,
      "Ġthey": 2974,
      "sor": 2975,
      "props": 2976,
      "Settings": 2977,
      "Ġbo": 2978,
      "ĠANY": 2979,
      "python": 2980,
      "Open": 2981,
      "conf": 2982,
      "Ġaddress": 2983,
      "Ġê": 2984,
      "undle": 2985,
      "break": 2986,
      "see": 2987,
      "uff": 2988,
      "Ġstore": 2989,
      "Ġet": 2990,
      "erge": 2991,
      "\"));": 2992,
      "čĊčĊĠĠĠĠĠĠĠ": 2993,
      "ansp": 2994,
      "Dir": 2995,
      "aders": 2996,
      "Async": 2997,
      "imal": 2998,
      "PR": 2999,
      "Ġnon": 3000,
      "yp": 3001,
      "Mat": 3002,
      "Work": 3003,
      "operator": 3004,
      "custom": 3005,
      "Ã£o": 3006,
      "inue": 3007,
      "leted": 3008,
      "ween": 3009,
      "Pos": 3010,
      "ä¸Ń": 3011,
      "\"\"\"": 3012,
      "ayload": 3013,
      "copy": 3014,
      "ART": 3015,
      "fd": 3016,
      "era": 3017,
      "Ġ'./": 3018,
      "tab": 3019,
      "blob": 3020,
      "Ġ\",": 3021,
      "å¯": 3022,
      "step": 3023,
      "Unit": 3024,
      "total": 3025,
      "Parameter": 3026,
      "Ġour": 3027,
      "Load": 3028,
      "ures": 3029,
      "Ġalign": 3030,
      "åĨ": 3031,
      "Thread": 3032,
      "NS": 3033,
      "shot": 3034,
      "'>": 3035,
      "bed": 3036,
      "rowser": 3037,
      "ĊĉĊ": 3038,
      "Ġapplication": 3039,
      "ĠWAR": 3040,
      "Height": 3041,
      "ences": 3042,
      "entifier": 3043,
      "ĠHT": 3044,
      "split": 3045,
      "Device": 3046,
      "Ġpri": 3047,
      "lied": 3048,
      "Ġthem": 3049,
      "ĠVersion": 3050,
      "ĊĊĠĠ": 3051,
      "æľī": 3052,
      "items": 3053,
      "entry": 3054,
      "menu": 3055,
      "stack": 3056,
      "Ġsk": 3057,
      "Interface": 3058,
      "Ġ[\"": 3059,
      "vious": 3060,
      "inate": 3061,
      "ĠRE": 3062,
      "ai": 3063,
      "ists": 3064,
      "ä¸į": 3065,
      "Ġdescription": 3066,
      "ĊĊĊ": 3067,
      "wn": 3068,
      "Body": 3069,
      "Ġroot": 3070,
      "Ġhelp": 3071,
      "Que": 3072,
      "ocker": 3073,
      "ploy": 3074,
      "Current": 3075,
      "GE": 3076,
      "IB": 3077,
      "Integer": 3078,
      "Ġ'/": 3079,
      "Ġ(:": 3080,
      "Ġdelete": 3081,
      "uter": 3082,
      "ORD": 3083,
      "Ġvis": 3084,
      "ĠDes": 3085,
      "missions": 3086,
      "Ġcould": 3087,
      "vol": 3088,
      "ries": 3089,
      "jpg": 3090,
      "ĠDef": 3091,
      "xc": 3092,
      "åĩ": 3093,
      "way": 3094,
      "å¾": 3095,
      "xd": 3096,
      "Args": 3097,
      "Ġtemplate": 3098,
      "ĠError": 3099,
      "Ġdb": 3100,
      "andard": 3101,
      "ĊĠĠĠĠĠĠĠĠĠĠĠĠĠĠ": 3102,
      "ocket": 3103,
      "la": 3104,
      "Ġ{@": 3105,
      "layout": 3106,
      "Ġop": 3107,
      "imum": 3108,
      "second": 3109,
      "Sec": 3110,
      "ï¼ļ": 3111,
      "Document": 3112,
      "iler": 3113,
      "gu": 3114,
      "æĿ": 3115,
      "Ġinfo": 3116,
      "oci": 3117,
      "Ġsecond": 3118,
      "Ġpass": 3119,
      "hell": 3120,
      "ories": 3121,
      "æł": 3122,
      "CM": 3123,
      "Ġlength": 3124,
      "hav": 3125,
      "impl": 3126,
      "toString": 3127,
      ".\"": 3128,
      "Ġbuffer": 3129,
      "ĠMe": 3130,
      "Stack": 3131,
      "Ġcons": 3132,
      "ĠAND": 3133,
      "otype": 3134,
      "Render": 3135,
      "Ġsuccess": 3136,
      "Ġcustom": 3137,
      "Ġstep": 3138,
      "We": 3139,
      "rough": 3140,
      "Ġmsg": 3141,
      "INE": 3142,
      "âĶĢâĶĢ": 3143,
      "xff": 3144,
      "Ġframe": 3145,
      "success": 3146,
      "------------": 3147,
      "_.": 3148,
      "aise": 3149,
      "att": 3150,
      "ely": 3151,
      "Session": 3152,
      "ĠNew": 3153,
      "ä¼": 3154,
      "ĠNo": 3155,
      "expected": 3156,
      "resource": 3157,
      "Ġbtn": 3158,
      "pha": 3159,
      "vec": 3160,
      "Ġtwo": 3161,
      "Ġbl": 3162,
      "ination": 3163,
      "LIC": 3164,
      "gh": 3165,
      "vm": 3166,
      "åĮ": 3167,
      "category": 3168,
      "Top": 3169,
      "istory": 3170,
      "Record": 3171,
      "ances": 3172,
      "Ġeither": 3173,
      "sche": 3174,
      "ixel": 3175,
      "Post": 3176,
      "ĉĉĉ": 3177,
      "éĩ": 3178,
      "should": 3179,
      "application": 3180,
      "uple": 3181,
      "Ġ~": 3182,
      "render": 3183,
      "Ġborder": 3184,
      "\"`": 3185,
      "ior": 3186,
      "ĠAssert": 3187,
      "Title": 3188,
      "edit": 3189,
      "inary": 3190,
      "pth": 3191,
      "cause": 3192,
      "ernel": 3193,
      "Ġlay": 3194,
      "ĠAp": 3195,
      "Param": 3196,
      "SD": 3197,
      "pk": 3198,
      "BO": 3199,
      "HER": 3200,
      "ENSE": 3201,
      "TD": 3202,
      "Ġparse": 3203,
      "ĠNot": 3204,
      "Ġspecified": 3205,
      "}/": 3206,
      "ĠGener": 3207,
      "ĠFalse": 3208,
      "Search": 3209,
      "ĠGL": 3210,
      "Ġdiffer": 3211,
      "ARE": 3212,
      "achine": 3213,
      "Project": 3214,
      "Ġlevel": 3215,
      "Range": 3216,
      "DIR": 3217,
      "LL": 3218,
      "ules": 3219,
      "Ġbr": 3220,
      "ASE": 3221,
      "ead": 3222,
      "Script": 3223,
      "Ġbackground": 3224,
      "coding": 3225,
      "!!": 3226,
      "cloud": 3227,
      "Down": 3228,
      "ById": 3229,
      "WRITE": 3230,
      "Repository": 3231,
      "__(": 3232,
      "insert": 3233,
      "]]": 3234,
      "Ġreturns": 3235,
      "inline": 3236,
      "addr": 3237,
      "Ġinit": 3238,
      "long": 3239,
      "Ġwindow": 3240,
      "Ġorig": 3241,
      "final": 3242,
      "Ġ'\\": 3243,
      "Ġge": 3244,
      "Inst": 3245,
      "ds": 3246,
      "ias": 3247,
      "anks": 3248,
      "replace": 3249,
      "Description": 3250,
      "ensions": 3251,
      "Ġsearch": 3252,
      "channel": 3253,
      "pop": 3254,
      "avax": 3255,
      "Ġsend": 3256,
      ")->": 3257,
      "struction": 3258,
      "ls": 3259,
      "('/": 3260,
      "(){": 3261,
      "limit": 3262,
      "Ġest": 3263,
      "Ġ(*": 3264,
      "rigger": 3265,
      "tree": 3266,
      "job": 3267,
      "returns": 3268,
      "internal": 3269,
      "ted": 3270,
      "yntax": 3271,
      "%%%%": 3272,
      "Ġscript": 3273,
      "çĽ": 3274,
      "JSON": 3275,
      "ĠÐ¿": 3276,
      "global": 3277,
      "actor": 3278,
      "ius": 3279,
      "ACE": 3280,
      "ĊĉĠĠĠ": 3281,
      "aly": 3282,
      "Last": 3283,
      "ĠException": 3284,
      "Assert": 3285,
      "ĠName": 3286,
      "Obj": 3287,
      "na": 3288,
      "ACK": 3289,
      "Ġcreated": 3290,
      "ĠDo": 3291,
      "ung": 3292,
      "ason": 3293,
      "Ġmet": 3294,
      "ãģĻ": 3295,
      "Ðº": 3296,
      "ĠâĢ": 3297,
      "END": 3298,
      "shape": 3299,
      "Ġresults": 3300,
      "Ġthese": 3301,
      "ĠWARRAN": 3302,
      "Properties": 3303,
      "straint": 3304,
      "NULL": 3305,
      "ÑĮ": 3306,
      "Ġmargin": 3307,
      "Handle": 3308,
      "Callback": 3309,
      "Ag": 3310,
      "ous": 3311,
      "itional": 3312,
      "Ġdevice": 3313,
      "Reader": 3314,
      "fix": 3315,
      "ASS": 3316,
      "feature": 3317,
      "Ġbecause": 3318,
      "KEY": 3319,
      "ynamic": 3320,
      "mar": 3321,
      "Ġavailable": 3322,
      "Ġ++": 3323,
      "sample": 3324,
      "Ġcallback": 3325,
      "Ġtests": 3326,
      "weight": 3327,
      "Build": 3328,
      "FL": 3329,
      "utf": 3330,
      "cel": 3331,
      "dest": 3332,
      "ration": 3333,
      "register": 3334,
      "Ġč": 3335,
      "ĠText": 3336,
      "Ġcache": 3337,
      "ggle": 3338,
      "IND": 3339,
      "Local": 3340,
      "Ġ!==": 3341,
      "Ġ%}": 3342,
      "rate": 3343,
      "gistry": 3344,
      "umb": 3345,
      "edia": 3346,
      "Ġ\"\"": 3347,
      "++;": 3348,
      "sort": 3349,
      "Ġfun": 3350,
      "Ġ{{": 3351,
      "interface": 3352,
      "Ġheader": 3353,
      "Account": 3354,
      "čĊĠĠ": 3355,
      "ATH": 3356,
      "Reg": 3357,
      "Ġpe": 3358,
      "ished": 3359,
      ";;": 3360,
      "MB": 3361,
      "AND": 3362,
      "Ġred": 3363,
      "Next": 3364,
      "Ġremove": 3365,
      "ãĤĴ": 3366,
      "Values": 3367,
      "pers": 3368,
      "then": 3369,
      "ao": 3370,
      "Tree": 3371,
      "acket": 3372,
      "Met": 3373,
      "Ġway": 3374,
      "URE": 3375,
      "Ġbody": 3376,
      "Ġio": 3377,
      "Ġdirectory": 3378,
      "fn": 3379,
      "ĠCO": 3380,
      "ĠAll": 3381,
      "SIZE": 3382,
      "\\+": 3383,
      "inner": 3384,
      "Definition": 3385,
      "day": 3386,
      "bad": 3387,
      "commit": 3388,
      "can": 3389,
      "Ġalt": 3390,
      "ĠAzure": 3391,
      "usr": 3392,
      "grid": 3393,
      "curity": 3394,
      "ĠConfig": 3395,
      "expr": 3396,
      "ä¸º": 3397,
      "á»": 3398,
      "Sign": 3399,
      "cell": 3400,
      "Ġconnection": 3401,
      "ĊĠĠĠĠĠĠĠĠĠĠĠĠĠĠĠĠĠĠĠĠĠĠĠĠĠĠĠĠĠĠĠĠĠĠĠĠĠĠĠĠĠĠĠ": 3402,
      "ĠĠĠĠĠĠĠĠĠĠĠĠĠĠ": 3403,
      "models": 3404,
      "Ġax": 3405,
      "Ġparameters": 3406,
      "spring": 3407,
      "Ġâ": 3408,
      "Op": 3409,
      "Ġtotal": 3410,
      "ĠJSON": 3411,
      "Ġdone": 3412,
      "Ġoffset": 3413,
      "Custom": 3414,
      "nap": 3415,
      "Ġparameter": 3416,
      "Ġchanges": 3417,
      "Graph": 3418,
      "ultiple": 3419,
      "Product": 3420,
      "Ġhost": 3421,
      "Delete": 3422,
      "Ġpos": 3423,
      "CRE": 3424,
      "ually": 3425,
      "gor": 3426,
      "ideo": 3427,
      "æ³": 3428,
      "Ġentry": 3429,
      "ilt": 3430,
      "ision": 3431,
      "imation": 3432,
      "Ġdefined": 3433,
      "uk": 3434,
      "pol": 3435,
      "region": 3436,
      "Ar": 3437,
      "iddle": 3438,
      "Ġfunc": 3439,
      ".*": 3440,
      "train": 3441,
      "thread": 3442,
      "Ġalready": 3443,
      "lice": 3444,
      ")).": 3445,
      "PC": 3446,
      "Ġbyte": 3447,
      "uture": 3448,
      "åı¯": 3449,
      "si": 3450,
      "Port": 3451,
      "ĠWIT": 3452,
      "media": 3453,
      "ario": 3454,
      "Template": 3455,
      "=\"{{": 3456,
      "ĠÃ": 3457,
      "Ġstream": 3458,
      "Ġsm": 3459,
      "mun": 3460,
      "\"],": 3461,
      "ç½": 3462,
      "ä»¥": 3463,
      "æŀ": 3464,
      "ibility": 3465,
      "valu": 3466,
      "Ġbutton": 3467,
      "Offset": 3468,
      "uri": 3469,
      "MAX": 3470,
      "ĠCheck": 3471,
      "dc": 3472,
      "Ġdifferent": 3473,
      "}{": 3474,
      "æİ": 3475,
      "bottom": 3476,
      "Ġprogram": 3477,
      "ability": 3478,
      "Ġ{\"": 3479,
      "'m": 3480,
      "Ġdest": 3481,
      "tric": 3482,
      "Ġundefined": 3483,
      "AGE": 3484,
      "First": 3485,
      "echo": 3486,
      "ĠReact": 3487,
      "scope": 3488,
      "border": 3489,
      "modules": 3490,
      "Ġposs": 3491,
      "mov": 3492,
      "ho": 3493,
      "IGN": 3494,
      "MENT": 3495,
      "coder": 3496,
      "ATA": 3497,
      "styles": 3498,
      "Impl": 3499,
      "ORM": 3500,
      "Argument": 3501,
      "engine": 3502,
      "Expression": 3503,
      "Proto": 3504,
      "Ġconfiguration": 3505,
      "Ġacc": 3506,
      "ĊĠĠĠĠĠĠĠĠĠĠĠĠĠĠĠĠĠĠĠĠ": 3507,
      "Cre": 3508,
      ":\\": 3509,
      "Ġbit": 3510,
      "Ġvirtual": 3511,
      "Ġfore": 3512,
      "Ġaccount": 3513,
      "ube": 3514,
      "à®": 3515,
      "Player": 3516,
      "Ġempty": 3517,
      "Ġcontrol": 3518,
      "keys": 3519,
      "Ġdatabase": 3520,
      "æĶ": 3521,
      "fin": 3522,
      "ä¿": 3523,
      "Cal": 3524,
      "aml": 3525,
      "fc": 3526,
      "assets": 3527,
      "å½": 3528,
      "dr": 3529,
      "cmd": 3530,
      "ĠMap": 3531,
      "connect": 3532,
      "ÐµÐ½": 3533,
      "Ġbytes": 3534,
      "CODE": 3535,
      "amera": 3536,
      "window": 3537,
      "ross": 3538,
      "'])": 3539,
      "eed": 3540,
      "Ġsession": 3541,
      "Channel": 3542,
      "account": 3543,
      "Debug": 3544,
      "components": 3545,
      "ua": 3546,
      "Ġdepend": 3547,
      "æį": 3548,
      "Step": 3549,
      "irm": 3550,
      "\"/>": 3551,
      "vas": 3552,
      "Ġlicense": 3553,
      "Mon": 3554,
      "FILE": 3555,
      "ĠĠĠĠĠĠĠĠĠĠĠĠĠĠĠĠĠĠĠĠĠĠĠĠĠĠĠĠĠĠĠĠĠĠĠĠĠĠĠĠĠĠĠĠĠĠĠĠĠĠĠĠĠĠĠĠĠĠĠĠĠĠĠĠ": 3556,
      "serial": 3557,
      "Ġthink": 3558,
      "Ġfull": 3559,
      "rem": 3560,
      "als": 3561,
      "Ġfail": 3562,
      "settings": 3563,
      "actions": 3564,
      "è¦": 3565,
      "SQL": 3566,
      "Grid": 3567,
      "amily": 3568,
      "SA": 3569,
      "plot": 3570,
      "iod": 3571,
      "dim": 3572,
      "alloc": 3573,
      "ĠTrans": 3574,
      "access": 3575,
      "velop": 3576,
      "DR": 3577,
      "éĹ": 3578,
      "Ġdel": 3579,
      "Reference": 3580,
      "Storage": 3581,
      "inc": 3582,
      "ipel": 3583,
      "Ġinternal": 3584,
      "NE": 3585,
      "<<": 3586,
      "Route": 3587,
      "Init": 3588,
      "peed": 3589,
      "verse": 3590,
      "equals": 3591,
      "reference": 3592,
      "Ġswitch": 3593,
      "Edit": 3594,
      "Ø§": 3595,
      "Ġnamespace": 3596,
      "One": 3597,
      "Net": 3598,
      "Card": 3599,
      "ĥ½": 3600,
      "Ġconf": 3601,
      "Ġapplic": 3602,
      "gment": 3603,
      "ĠAd": 3604,
      "alle": 3605,
      "SION": 3606,
      "ict": 3607,
      "support": 3608,
      "Found": 3609,
      "æĢ": 3610,
      "bc": 3611,
      "LOG": 3612,
      "jo": 3613,
      "è§": 3614,
      "abs": 3615,
      "æĹ¶": 3616,
      "HP": 3617,
      "bf": 3618,
      "Ġword": 3619,
      "ĠÑģ": 3620,
      "boot": 3621,
      "pose": 3622,
      "range": 3623,
      "ws": 3624,
      "('#": 3625,
      "ĠIs": 3626,
      "Ġold": 3627,
      "mock": 3628,
      "bove": 3629,
      "Ġreq": 3630,
      "Eng": 3631,
      "login": 3632,
      "filename": 3633,
      "ignore": 3634,
      "WN": 3635,
      "Ġrelease": 3636,
      "iment": 3637,
      "Ġunsigned": 3638,
      "gorith": 3639,
      "PORT": 3640,
      "Ġtheir": 3641,
      "game": 3642,
      "Ġpy": 3643,
      "SO": 3644,
      "aterial": 3645,
      "Ġrecord": 3646,
      "cap": 3647,
      "Items": 3648,
      "Ġcard": 3649,
      "ĠEN": 3650,
      "Ġproto": 3651,
      "Ġreport": 3652,
      "ids": 3653,
      "Ġadded": 3654,
      "Ġraise": 3655,
      "Bytes": 3656,
      "ae": 3657,
      "Ġmark": 3658,
      "Ġevery": 3659,
      "ii": 3660,
      "ctionary": 3661,
      "required": 3662,
      "Changed": 3663,
      "ĠDis": 3664,
      "%;": 3665,
      "comment": 3666,
      "\"}": 3667,
      "Ġsum": 3668,
      "bytes": 3669,
      "Tool": 3670,
      "Ġglobal": 3671,
      "Mock": 3672,
      "Ġsure": 3673,
      "PT": 3674,
      "member": 3675,
      "avas": 3676,
      "è¡Į": 3677,
      "ĠOption": 3678,
      "dl": 3679,
      "Host": 3680,
      "Ġobt": 3681,
      "Ġthread": 3682,
      "Match": 3683,
      ")),": 3684,
      "rs": 3685,
      "Panel": 3686,
      "Ġplace": 3687,
      ".__": 3688,
      "Are": 3689,
      "Float": 3690,
      "urity": 3691,
      "SY": 3692,
      "svg": 3693,
      "Parameters": 3694,
      "Left": 3695,
      "Ġhash": 3696,
      "Activity": 3697,
      "Ġjavax": 3698,
      "utes": 3699,
      "avascript": 3700,
      "////////////////////////////////": 3701,
      "LECT": 3702,
      "PER": 3703,
      "ĊĊĠĠĠĠĠĠĠĠĠĠĠĠĠĠĠĠĠĠĠ": 3704,
      "eq": 3705,
      "Rel": 3706,
      "ĠModel": 3707,
      "Ġctx": 3708,
      "Ġtmp": 3709,
      "Schema": 3710,
      "atal": 3711,
      "crypt": 3712,
      "Ġabove": 3713,
      "Ġdoc": 3714,
      "Users": 3715,
      "Logger": 3716,
      "Ð²": 3717,
      "ĠWeb": 3718,
      "POST": 3719,
      "DF": 3720,
      "Ġcondition": 3721,
      "Ġknow": 3722,
      "Ġnet": 3723,
      "users": 3724,
      "Ġatt": 3725,
      "Engine": 3726,
      "angle": 3727,
      "Font": 3728,
      "å¹": 3729,
      "lap": 3730,
      "TIES": 3731,
      "Ġproblem": 3732,
      "Bl": 3733,
      "ĠTime": 3734,
      "ĠForm": 3735,
      "REWRITE": 3736,
      "native": 3737,
      "ocus": 3738,
      "Bind": 3739,
      "bers": 3740,
      "^^": 3741,
      "Dialog": 3742,
      "ĠSub": 3743,
      "UID": 3744,
      "car": 3745,
      "*)": 3746,
      "Ġpadding": 3747,
      "alk": 3748,
      "tool": 3749,
      "sys": 3750,
      "ĠĊĠĠĠ": 3751,
      "Del": 3752,
      "known": 3753,
      "_,": 3754,
      "report": 3755,
      "Ġtypes": 3756,
      "holder": 3757,
      "Ġsizeof": 3758,
      "roy": 3759,
      "Ġfree": 3760,
      "Ġbetween": 3761,
      "strap": 3762,
      "ways": 3763,
      "ek": 3764,
      "CS": 3765,
      "(-": 3766,
      "ĠFROM": 3767,
      "Ġder": 3768,
      "CR": 3769,
      "Ġfin": 3770,
      "å¸": 3771,
      "come": 3772,
      "Ġexception": 3773,
      "Ġsuch": 3774,
      "azure": 3775,
      "Li": 3776,
      "ĠReturns": 3777,
      "Widget": 3778,
      "cpp": 3779,
      "TEST": 3780,
      "My": 3781,
      "urren": 3782,
      "Game": 3783,
      "Ġ'@": 3784,
      "Po": 3785,
      "Operation": 3786,
      "ĠBase": 3787,
      "kit": 3788,
      "Ġ>>": 3789,
      "wise": 3790,
      "Ġ\"<": 3791,
      "ĊĠĠĠĠĠĠĠĠĠĠĠĠĠĠĠĠĠĠĠĠĠĠĠĠĠ": 3792,
      "area": 3793,
      "release": 3794,
      "conn": 3795,
      "exports": 3796,
      "Ġmon": 3797,
      "Job": 3798,
      "=\"/": 3799,
      "microsoft": 3800,
      "License": 3801,
      "ĠMicrosoft": 3802,
      "ĠassertEquals": 3803,
      "non": 3804,
      "Ġsim": 3805,
      "install": 3806,
      "UD": 3807,
      "orch": 3808,
      "Require": 3809,
      "acity": 3810,
      "ãĤĭ": 3811,
      "ka": 3812,
      "Ġauth": 3813,
      "ather": 3814,
      "~~~~": 3815,
      "æŃ": 3816,
      "desc": 3817,
      "Ġfailed": 3818,
      "å·": 3819,
      "æĸĩ": 3820,
      "ä»¶": 3821,
      "ðŁ": 3822,
      "')->": 3823,
      "transform": 3824,
      "Ap": 3825,
      "scale": 3826,
      "iant": 3827,
      "Invalid": 3828,
      "ga": 3829,
      "clear": 3830,
      "Ġcorrect": 3831,
      "Vert": 3832,
      "ACT": 3833,
      "Ġ[[": 3834,
      "erial": 3835,
      "Variable": 3836,
      "oom": 3837,
      "'];": 3838,
      "å®ļ": 3839,
      "lation": 3840,
      "Te": 3841,
      "Ġchannel": 3842,
      "\")]": 3843,
      "Ġfields": 3844,
      "Ġcalled": 3845,
      "ĠURL": 3846,
      "Ġok": 3847,
      "(!": 3848,
      "orig": 3849,
      "drop": 3850,
      "math": 3851,
      "Files": 3852,
      "alt": 3853,
      "connection": 3854,
      "Rule": 3855,
      "èĢ": 3856,
      "player": 3857,
      "Ġenum": 3858,
      "ges": 3859,
      "ĠST": 3860,
      "redential": 3861,
      "AME": 3862,
      "Ġcontainer": 3863,
      "}\"": 3864,
      "Ã³n": 3865,
      "vid": 3866,
      "ĠValue": 3867,
      "Iter": 3868,
      "unsigned": 3869,
      "ĠSoftware": 3870,
      "Struct": 3871,
      "widget": 3872,
      "Ġsort": 3873,
      "Ġam": 3874,
      "Each": 3875,
      "ĠÐ²": 3876,
      "modal": 3877,
      "Exp": 3878,
      "encies": 3879,
      "enum": 3880,
      "Ġiter": 3881,
      "[$": 3882,
      "Ġhigh": 3883,
      "ced": 3884,
      "ãģ«": 3885,
      "avig": 3886,
      "hidden": 3887,
      "yy": 3888,
      "Ġdirect": 3889,
      "ipeline": 3890,
      "wj": 3891,
      "ium": 3892,
      "agement": 3893,
      "Ġpassword": 3894,
      "Ġattribute": 3895,
      "Ġerrors": 3896,
      "raft": 3897,
      "duc": 3898,
      "ged": 3899,
      "prototype": 3900,
      "plit": 3901,
      "ambda": 3902,
      "draw": 3903,
      "bs": 3904,
      "ìĹ": 3905,
      "Ġloaded": 3906,
      "ĠKey": 3907,
      "term": 3908,
      "voke": 3909,
      "SL": 3910,
      "MT": 3911,
      "ĠWARRANTIES": 3912,
      "Ġlocation": 3913,
      "IR": 3914,
      "Ġí": 3915,
      "ĠEvent": 3916,
      "random": 3917,
      "exception": 3918,
      ":(": 3919,
      "ĠLO": 3920,
      "Non": 3921,
      "NOT": 3922,
      "Ġregister": 3923,
      "Props": 3924,
      "Ġpara": 3925,
      "Sw": 3926,
      "Ġexpress": 3927,
      "IST": 3928,
      "ired": 3929,
      "iteral": 3930,
      "hs": 3931,
      "arm": 3932,
      "\"},": 3933,
      "loy": 3934,
      "ulation": 3935,
      "parser": 3936,
      "Ġvol": 3937,
      "tegr": 3938,
      "Ġthrough": 3939,
      "ëĭ¤": 3940,
      "queue": 3941,
      "ffic": 3942,
      "hr": 3943,
      "ĠOpen": 3944,
      "Byte": 3945,
      "junit": 3946,
      "GB": 3947,
      "Display": 3948,
      "Ġgu": 3949,
      "ãģĹ": 3950,
      "ãĥ³": 3951,
      "protobuf": 3952,
      "ric": 3953,
      "ĠApache": 3954,
      "Ġ\"$": 3955,
      "äºĨ": 3956,
      "Ġtri": 3957,
      "ITION": 3958,
      "eded": 3959,
      "rm": 3960,
      "Ġprovided": 3961,
      "println": 3962,
      "ios": 3963,
      "('.": 3964,
      "Ġter": 3965,
      "Ġitems": 3966,
      "Long": 3967,
      "WS": 3968,
      "Database": 3969,
      "aws": 3970,
      ";\">": 3971,
      "details": 3972,
      "Ġke": 3973,
      "trics": 3974,
      "profile": 3975,
      "tip": 3976,
      "è¦ģ": 3977,
      "Ġgl": 3978,
      "Ñĩ": 3979,
      "Over": 3980,
      "tags": 3981,
      "schema": 3982,
      "points": 3983,
      "fmt": 3984,
      "Ġplugin": 3985,
      "ough": 3986,
      "Ġim": 3987,
      "mask": 3988,
      "Writer": 3989,
      "pull": 3990,
      "Ġrunning": 3991,
      "zip": 3992,
      "Ġdes": 3993,
      "Ð¼": 3994,
      "Pri": 3995,
      "medi": 3996,
      "(:": 3997,
      "Ġ```": 3998,
      "ayment": 3999,
      "criptor": 4000,
      "used": 4001,
      "Ġsample": 4002,
      "foo": 4003,
      "Ġmis": 4004,
      "Ġsingle": 4005,
      "Enabled": 4006,
      "IE": 4007,
      "Has": 4008,
      "Ġmerge": 4009,
      "free": 4010,
      "Tab": 4011,
      "Ġjob": 4012,
      "ĠUpdate": 4013,
      "Copy": 4014,
      "sure": 4015,
      "FR": 4016,
      "Ġnetwork": 4017,
      ":</": 4018,
      "Ġbeing": 4019,
      "Generic": 4020,
      "ĠNode": 4021,
      "IGHT": 4022,
      "Ġgraph": 4023,
      "lide": 4024,
      "ĠHel": 4025,
      "Print": 4026,
      ".$": 4027,
      "Ass": 4028,
      "ertific": 4029,
      "ĠWindows": 4030,
      "manager": 4031,
      "bre": 4032,
      "Ġreal": 4033,
      "ending": 4034,
      "CA": 4035,
      "short": 4036,
      "}.": 4037,
      "Red": 4038,
      "gex": 4039,
      "ìĿ´": 4040,
      "Ġ];": 4041,
      "nn": 4042,
      "entication": 4043,
      "Ġdie": 4044,
      "Ġ\\\"": 4045,
      "Ġcell": 4046,
      "Ġmut": 4047,
      "android": 4048,
      "inte": 4049,
      "ĠDEFAULT": 4050,
      "Ġrandom": 4051,
      "ixed": 4052,
      "HOUT": 4053,
      "ĊĊĊĠĠĠ": 4054,
      "lar": 4055,
      "Ġcontinue": 4056,
      "Package": 4057,
      "Right": 4058,
      "pu": 4059,
      "Password": 4060,
      "čĊĉĉĉĉ": 4061,
      "licit": 4062,
      "spon": 4063,
      "ĠLo": 4064,
      "Ġvector": 4065,
      "del": 4066,
      "COL": 4067,
      "vision": 4068,
      "Root": 4069,
      "ĊĠĠĊĠ": 4070,
      "Ġjs": 4071,
      "Ġproduct": 4072,
      "Ġrepresent": 4073,
      "stop": 4074,
      "ĠPl": 4075,
      "Ġagain": 4076,
      "(__": 4077,
      "Flow": 4078,
      "ators": 4079,
      "'=>": 4080,
      "ëĬ": 4081,
      "article": 4082,
      "čĊĠĠĠĠĠĠĠĠĠĠĠĠĠĠĠĠĠĠĠĠĠĠĠ": 4083,
      "rie": 4084,
      "akes": 4085,
      "Ġsettings": 4086,
      "wrap": 4087,
      "PATH": 4088,
      "logger": 4089,
      "Double": 4090,
      "Active": 4091,
      "duce": 4092,
      "semb": 4093,
      "words": 4094,
      "lg": 4095,
      "Ġauthor": 4096,
      "=\\\"": 4097,
      "Queue": 4098,
      "acy": 4099,
      "scal": 4100,
      "Ġlogger": 4101,
      "ĊĉĉĊĉ": 4102,
      "ĠDO": 4103,
      "Msg": 4104,
      "wner": 4105,
      "LICENSE": 4106,
      "ĊĉĠ": 4107,
      "Metadata": 4108,
      "ĠCre": 4109,
      "pename": 4110,
      "Ġemail": 4111,
      "cm": 4112,
      "=$": 4113,
      "Ġhand": 4114,
      "foot": 4115,
      "uring": 4116,
      "ured": 4117,
      "ÑģÑĤ": 4118,
      "ĠDefault": 4119,
      "cover": 4120,
      "havior": 4121,
      "Ġ``": 4122,
      "agn": 4123,
      "served": 4124,
      "{\\": 4125,
      "ĠVector": 4126,
      "}\\": 4127,
      "Names": 4128,
      "none": 4129,
      "adow": 4130,
      "_;": 4131,
      "DL": 4132,
      "(()": 4133,
      "udent": 4134,
      "æĮ": 4135,
      "domain": 4136,
      "Ġmemory": 4137,
      "Ġparser": 4138,
      "(\"#": 4139,
      "springframework": 4140,
      "Ġreference": 4141,
      "Ġapi": 4142,
      "EST": 4143,
      "Ġwriting": 4144,
      "ives": 4145,
      "untry": 4146,
      "VL": 4147,
      "Ġbased": 4148,
      "kw": 4149,
      "DS": 4150,
      "FFFF": 4151,
      "Fields": 4152,
      "éĻ": 4153,
      "Ġstack": 4154,
      "record": 4155,
      "Ġoperator": 4156,
      "Ġ<?": 4157,
      "Report": 4158,
      "åĢ": 4159,
      "ites": 4160,
      "Ġ'<": 4161,
      "napshot": 4162,
      "Ġdid": 4163,
      "TW": 4164,
      "ç§": 4165,
      "Ġsave": 4166,
      "cv": 4167,
      "Plugin": 4168,
      "fields": 4169,
      "atom": 4170,
      "EE": 4171,
      "ignment": 4172,
      "elf": 4173,
      "ĠPRO": 4174,
      "background": 4175,
      "tw": 4176,
      "Ġhtml": 4177,
      "ops": 4178,
      "builder": 4179,
      "Ġput": 4180,
      "Matrix": 4181,
      "fill": 4182,
      "Ġdoesn": 4183,
      "Ġexport": 4184,
      "So": 4185,
      "ragment": 4186,
      "Close": 4187,
      "\">&": 4188,
      "ĠMath": 4189,
      "ros": 4190,
      "anner": 4191,
      "collection": 4192,
      "Ġsection": 4193,
      ">{": 4194,
      "ĠâĶ": 4195,
      "REF": 4196,
      "ĊĠĠĠĠĠĠĠĠĠĠĠĠĠĠĠĠĠĠĠĠĠĠĠĠĠĠĠĠĠĠĠĠĠĠĠĠĠĠĠĠĠĠĠĠĠĠĠ": 4197,
      "HEN": 4198,
      "ĠAct": 4199,
      "PAR": 4200,
      ")/": 4201,
      "ĠSome": 4202,
      "Ġinstead": 4203,
      "Ġgame": 4204,
      "licenses": 4205,
      "shared": 4206,
      "ars": 4207,
      "Admin": 4208,
      "bd": 4209,
      "language": 4210,
      "ĠTask": 4211,
      "ĠRem": 4212,
      "ĠWITHOUT": 4213,
      "Import": 4214,
      "eg": 4215,
      "Ġcenter": 4216,
      "(`": 4217,
      "Ġrole": 4218,
      "docker": 4219,
      "Ġunit": 4220,
      "Func": 4221,
      "Ġpossible": 4222,
      "æĪĲ": 4223,
      "Ġstill": 4224,
      "Ġum": 4225,
      "xffff": 4226,
      "Pool": 4227,
      "Ġarguments": 4228,
      "(\"/": 4229,
      "hether": 4230,
      "Ġoperation": 4231,
      "decl": 4232,
      "wjgl": 4233,
      "Doc": 4234,
      "ĠPer": 4235,
      "Category": 4236,
      "sec": 4237,
      "Ġĉ": 4238,
      "storage": 4239,
      "çī": 4240,
      "****************************************************************": 4241,
      "ĠServer": 4242,
      "Ġpermissions": 4243,
      "ä½¿": 4244,
      "Ġobtain": 4245,
      "mac": 4246,
      "Meta": 4247,
      "Ġclose": 4248,
      "Feature": 4249,
      "Ġclear": 4250,
      "è¿Ļ": 4251,
      "ada": 4252,
      ">:": 4253,
      ")));": 4254,
      "Ġmov": 4255,
      "OUT": 4256,
      "ĠInput": 4257,
      "Ġbegin": 4258,
      "PS": 4259,
      "unch": 4260,
      "Ġdetails": 4261,
      "ĠAnd": 4262,
      "Policy": 4263,
      "CI": 4264,
      "/)": 4265,
      "STAT": 4266,
      "Ġ''": 4267,
      "RR": 4268,
      "()).": 4269,
      "services": 4270,
      "prefix": 4271,
      "Ġusers": 4272,
      "javascript": 4273,
      "tf": 4274,
      "acing": 4275,
      "Ġsa": 4276,
      "Ġlibrary": 4277,
      "logy": 4278,
      "Ġforeach": 4279,
      "testing": 4280,
      "¦Ĥ": 4281,
      "Ġicon": 4282,
      "ä¾": 4283,
      "ĠBe": 4284,
      "ĠVal": 4285,
      "čĊčĊč": 4286,
      "Ġappro": 4287,
      "names": 4288,
      "Ġagre": 4289,
      "GR": 4290,
      "Timeout": 4291,
      "Any": 4292,
      "Collections": 4293,
      "ĠInst": 4294,
      "Ð¾Ð²": 4295,
      "You": 4296,
      "dot": 4297,
      "Ġreadonly": 4298,
      "?>": 4299,
      "ILITY": 4300,
      "hes": 4301,
      "Profile": 4302,
      "tools": 4303,
      "-->": 4304,
      "Internal": 4305,
      "Cur": 4306,
      "æį®": 4307,
      "ailed": 4308,
      "](#": 4309,
      "ĠĊĠĠĠĠĠĠĠĠĠĠĠ": 4310,
      "AX": 4311,
      "errors": 4312,
      "Ġsimple": 4313,
      "ĠTODO": 4314,
      "role": 4315,
      "ä¸ĭ": 4316,
      "å¯¹": 4317,
      "ĠMy": 4318,
      "Ver": 4319,
      "ority": 4320,
      "PECT": 4321,
      "ĠOut": 4322,
      "Err": 4323,
      "Ġproperties": 4324,
      "Show": 4325,
      "Ġcontains": 4326,
      "Ġ[];": 4327,
      "helper": 4328,
      "åĪ°": 4329,
      "Ġnormal": 4330,
      "Transaction": 4331,
      "rep": 4332,
      "results": 4333,
      "extern": 4334,
      "Ġplease": 4335,
      "Descriptor": 4336,
      "Ġselected": 4337,
      "Ġexit": 4338,
      "Register": 4339,
      "ĠView": 4340,
      "annotation": 4341,
      "ness": 4342,
      "Ġ\"\",": 4343,
      "ram": 4344,
      ".,": 4345,
      "llum": 4346,
      "ooks": 4347,
      "Ġoper": 4348,
      "Ġdocumentation": 4349,
      "ĠRout": 4350,
      "Ġautom": 4351,
      "liance": 4352,
      "initial": 4353,
      "Ġboth": 4354,
      "ãģĹãģ": 4355,
      "ceived": 4356,
      "chron": 4357,
      "selected": 4358,
      "ottom": 4359,
      "alys": 4360,
      "views": 4361,
      "........": 4362,
      "route": 4363,
      "Br": 4364,
      "fb": 4365,
      "ï»": 4366,
      "ever": 4367,
      "Ġpas": 4368,
      "Ġtree": 4369,
      "Main": 4370,
      "åĴ": 4371,
      "Author": 4372,
      "ony": 4373,
      "ĠPy": 4374,
      "Details": 4375,
      "Ġplayer": 4376,
      "Rect": 4377,
      "Ġelif": 4378,
      "ĠčĊč": 4379,
      "Ġparam": 4380,
      "=(": 4381,
      "Ð´": 4382,
      "ëĬĶ": 4383,
      "é¡": 4384,
      "high": 4385,
      "security": 4386,
      "Ġown": 4387,
      "icker": 4388,
      "Ġconstructor": 4389,
      "Ġ..": 4390,
      "pb": 4391,
      "AST": 4392,
      "ĠImage": 4393,
      "ï»¿": 4394,
      "ancel": 4395,
      "aved": 4396,
      "čĊĠĠĠĠĠĠĠĠĠ": 4397,
      "ĠIO": 4398,
      "callback": 4399,
      "HERE": 4400,
      "ĠHe": 4401,
      "track": 4402,
      "lluminate": 4403,
      "Use": 4404,
      "ird": 4405,
      "Ġpython": 4406,
      "usercontent": 4407,
      "Ġmock": 4408,
      "OB": 4409,
      "Ġbox": 4410,
      "Xml": 4411,
      "boolean": 4412,
      "æĸ¹": 4413,
      "async": 4414,
      "Ã§Ã£o": 4415,
      ")}": 4416,
      "Support": 4417,
      "ĠInteger": 4418,
      "Forms": 4419,
      "ĠCode": 4420,
      "Ġgover": 4421,
      "ĠAc": 4422,
      "READ": 4423,
      "Success": 4424,
      "alysis": 4425,
      "ipp": 4426,
      "################################": 4427,
      "jection": 4428,
      ".\",": 4429,
      "DEF": 4430,
      "alth": 4431,
      "olution": 4432,
      "Adapter": 4433,
      "normal": 4434,
      "wd": 4435,
      "Ġentity": 4436,
      "depend": 4437,
      "HTML": 4438,
      "DC": 4439,
      "price": 4440,
      "olver": 4441,
      "ading": 4442,
      "ĠUse": 4443,
      "dates": 4444,
      "cimal": 4445,
      "Ġdim": 4446,
      "ĠSQL": 4447,
      "fp": 4448,
      "Parent": 4449,
      "leep": 4450,
      "ONE": 4451,
      "ĠNO": 4452,
      "čĊĠĠĠĠĠĠĠĠ": 4453,
      "Selector": 4454,
      "kt": 4455,
      "UAL": 4456,
      "Ġmethods": 4457,
      "encode": 4458,
      "ji": 4459,
      "Can": 4460,
      "è¡¨": 4461,
      "Ġeven": 4462,
      "ĠRequest": 4463,
      "Ġperform": 4464,
      "Ġfunctions": 4465,
      "lines": 4466,
      "Ġinline": 4467,
      "Ġgenerate": 4468,
      "Ġdiv": 4469,
      "Global": 4470,
      "åİ": 4471,
      "primary": 4472,
      "itter": 4473,
      "au": 4474,
      "screen": 4475,
      "batch": 4476,
      "RT": 4477,
      "Ġupdated": 4478,
      "rip": 4479,
      "upload": 4480,
      "win": 4481,
      "console": 4482,
      "Ġwait": 4483,
      "bound": 4484,
      "Tests": 4485,
      "WORD": 4486,
      "å¿": 4487,
      "ĠĊĠĠĠĠĠĠĠ": 4488,
      "ĠKIND": 4489,
      "Email": 4490,
      "issues": 4491,
      "Ġnames": 4492,
      "Parse": 4493,
      "èĥ½": 4494,
      "uby": 4495,
      "åĴĮ": 4496,
      "ama": 4497,
      "!(": 4498,
      "githubusercontent": 4499,
      "å¦Ĥ": 4500,
      "'re": 4501,
      "hy": 4502,
      "Mark": 4503,
      "Microsoft": 4504,
      "Only": 4505,
      "Ġimplied": 4506,
      "ĠRun": 4507,
      "Ġdecl": 4508,
      "Ġwell": 4509,
      "Dist": 4510,
      "Ġconvert": 4511,
      "Ġcollection": 4512,
      ">.": 4513,
      "Ġshort": 4514,
      "Ġgen": 4515,
      "ECT": 4516,
      "ĠĊĉ": 4517,
      "ä¸Ĭ": 4518,
      "åĪĨ": 4519,
      "lat": 4520,
      "variable": 4521,
      "è¾": 4522,
      "rb": 4523,
      "just": 4524,
      "ANT": 4525,
      "éĿ": 4526,
      "gorithm": 4527,
      "ĊĠĠĠĠĠĠĠĠĠĠĠĠĠĠĠĠĠĠ": 4528,
      "ĠBy": 4529,
      "ARY": 4530,
      "SU": 4531,
      "dk": 4532,
      "wer": 4533,
      "iÃ³n": 4534,
      "sim": 4535,
      "created": 4536,
      "Ġactive": 4537,
      "çİ": 4538,
      "VERSION": 4539,
      "execute": 4540,
      "metadata": 4541,
      "zer": 4542,
      "handler": 4543,
      "ìĦ": 4544,
      "`)": 4545,
      "íķĺ": 4546,
      "Ġwere": 4547,
      "Ġutil": 4548,
      "Ġtransform": 4549,
      "Ġenv": 4550,
      "ea": 4551,
      "ãģ§": 4552,
      "margin": 4553,
      "pa": 4554,
      "Role": 4555,
      "cli": 4556,
      "mi": 4557,
      "reset": 4558,
      "Selected": 4559,
      "flags": 4560,
      "Sk": 4561,
      "Directory": 4562,
      "ICE": 4563,
      "ĠFunction": 4564,
      "EM": 4565,
      "logic": 4566,
      "Ġfmt": 4567,
      "Ġapplicable": 4568,
      "Ġserial": 4569,
      "flag": 4570,
      "real": 4571,
      "Ġtool": 4572,
      "Track": 4573,
      "Ġtrack": 4574,
      "Ġprevious": 4575,
      "\\\":": 4576,
      "Ġsince": 4577,
      ".'": 4578,
      "loader": 4579,
      "Ġconn": 4580,
      "{%": 4581,
      "allow": 4582,
      "AV": 4583,
      "Ġimplements": 4584,
      "rict": 4585,
      "Ge": 4586,
      "ĠMessage": 4587,
      "Ġedit": 4588,
      "Ġscope": 4589,
      "Ġmodels": 4590,
      "Ġcommit": 4591,
      "å±": 4592,
      "duction": 4593,
      "ĠDB": 4594,
      "urrency": 4595,
      "Bit": 4596,
      "ä¸Ģä¸ª": 4597,
      "Ġdebug": 4598,
      "network": 4599,
      "åī": 4600,
      "dx": 4601,
      "ToString": 4602,
      "çĲ": 4603,
      "asure": 4604,
      "Member": 4605,
      "ãĥĪ": 4606,
      "ĠLoc": 4607,
      "=\"../../": 4608,
      "ALSE": 4609,
      "question": 4610,
      "stat": 4611,
      "ĠAt": 4612,
      ")*": 4613,
      "year": 4614,
      "ja": 4615,
      "RES": 4616,
      "database": 4617,
      "ĠIP": 4618,
      "Cluster": 4619,
      "âĸ": 4620,
      "ircle": 4621,
      "ansport": 4622,
      "Hub": 4623,
      "periment": 4624,
      "LIST": 4625,
      "ango": 4626,
      "Screen": 4627,
      "oly": 4628,
      "DATA": 4629,
      "ategories": 4630,
      "Drawing": 4631,
      "Ġmultiple": 4632,
      "ç½®": 4633,
      "pass": 4634,
      "SELECT": 4635,
      "ä½ľ": 4636,
      "Home": 4637,
      "JS": 4638,
      "ometry": 4639,
      "ended": 4640,
      "controller": 4641,
      "ĠArg": 4642,
      "Ġsent": 4643,
      "Flags": 4644,
      "Lock": 4645,
      "endar": 4646,
      "validate": 4647,
      "Ġ(_": 4648,
      "herit": 4649,
      "'ll": 4650,
      "switch": 4651,
      "toggle": 4652,
      "'));": 4653,
      "sn": 4654,
      "solute": 4655,
      "WE": 4656,
      "áº": 4657,
      "fg": 4658,
      "properties": 4659,
      "ceive": 4660,
      "getElement": 4661,
      "pkg": 4662,
      "ĠOr": 4663,
      "prop": 4664,
      "Ġmost": 4665,
      "Ġflag": 4666,
      "Ġgood": 4667,
      "Ġactual": 4668,
      "Ġassoci": 4669,
      "Im": 4670,
      "BE": 4671,
      "ĠÐ¸": 4672,
      "ãĤ¹": 4673,
      "Ġvert": 4674,
      "shal": 4675,
      "Kind": 4676,
      "Ġplay": 4677,
      "exists": 4678,
      "theme": 4679,
      "ĠPromise": 4680,
      "utter": 4681,
      "Ġsomething": 4682,
      "FE": 4683,
      "ĠLe": 4684,
      "hand": 4685,
      "CONT": 4686,
      "Wrapper": 4687,
      "verter": 4688,
      "uite": 4689,
      "urface": 4690,
      "Ġanother": 4691,
      "ĠÐ½": 4692,
      "zz": 4693,
      "Initial": 4694,
      "à¹": 4695,
      "counter": 4696,
      "MIN": 4697,
      "âķ": 4698,
      "ĠHttp": 4699,
      "runtime": 4700,
      "gy": 4701,
      "prec": 4702,
      "cfg": 4703,
      "eric": 4704,
      "FLAG": 4705,
      "Ġobjects": 4706,
      "ä½¿çĶ¨": 4707,
      "tk": 4708,
      "æ³ķ": 4709,
      "pdf": 4710,
      "||": 4711,
      "Ġinv": 4712,
      "Av": 4713,
      "ĠĠĠĠĠĠĠĠĠĠĠĠĠĠĠĠĠĠĠ": 4714,
      "___": 4715,
      "ament": 4716,
      "ĠResult": 4717,
      "Boolean": 4718,
      "panel": 4719,
      "èĩ": 4720,
      "Ġsetup": 4721,
      "ifdef": 4722,
      "Network": 4723,
      "Ġvec": 4724,
      "Ġelements": 4725,
      "Ġpred": 4726,
      "RI": 4727,
      "Bound": 4728,
      "ital": 4729,
      "Ġenvironment": 4730,
      "Ġreturned": 4731,
      "Ġoriginal": 4732,
      "ĠEnd": 4733,
      "dom": 4734,
      "/.": 4735,
      "ito": 4736,
      "Full": 4737,
      "alled": 4738,
      "Ġstop": 4739,
      "apply": 4740,
      "Ġgenerated": 4741,
      "Ġpop": 4742,
      "oriz": 4743,
      "imit": 4744,
      "Ġvia": 4745,
      "ç¨": 4746,
      "REG": 4747,
      ")\"": 4748,
      "Shape": 4749,
      "NT": 4750,
      "submit": 4751,
      ",$": 4752,
      "Ġimplementation": 4753,
      "Auto": 4754,
      "acc": 4755,
      "rest": 4756,
      "Ġworking": 4757,
      "PUT": 4758,
      "condition": 4759,
      "Ġrights": 4760,
      "Ġhapp": 4761,
      "Ġip": 4762,
      "ashboard": 4763,
      "arp": 4764,
      "ç®": 4765,
      "contains": 4766,
      "Total": 4767,
      "BR": 4768,
      "Ġsite": 4769,
      "wik": 4770,
      "help": 4771,
      "åĳ": 4772,
      "ĠLicensed": 4773,
      "Sync": 4774,
      "Bundle": 4775,
      "xFF": 4776,
      "ĠRed": 4777,
      "CD": 4778,
      "safe": 4779,
      "Ġstorage": 4780,
      "Ġcmd": 4781,
      "NET": 4782,
      "'ve": 4783,
      "oose": 4784,
      "mk": 4785,
      "uggest": 4786,
      "ressed": 4787,
      "exit": 4788,
      "Layer": 4789,
      "ights": 4790,
      "ÅŁ": 4791,
      ",,": 4792,
      "linux": 4793,
      "LINE": 4794,
      "ĠMan": 4795,
      "ench": 4796,
      "ker": 4797,
      "åıĸ": 4798,
      "Ð¿": 4799,
      "ĠFOR": 4800,
      ":**": 4801,
      "legate": 4802,
      "fit": 4803,
      "Trace": 4804,
      "alert": 4805,
      "rief": 4806,
      "ĠStart": 4807,
      "ship": 4808,
      "lab": 4809,
      "(@": 4810,
      "vi": 4811,
      "TIME": 4812,
      "footer": 4813,
      "Ġcontain": 4814,
      "Mapping": 4815,
      "Ġmight": 4816,
      "Ġocc": 4817,
      "ĠHTTP": 4818,
      "Models": 4819,
      "Ġscreen": 4820,
      "ĠInter": 4821,
      ">;": 4822,
      "Extension": 4823,
      "Ġwithin": 4824,
      "socket": 4825,
      "Ġsolid": 4826,
      "iness": 4827,
      "Pointer": 4828,
      "Generator": 4829,
      "çĲĨ": 4830,
      "vc": 4831,
      "Ġæ": 4832,
      "xt": 4833,
      "Ġbelow": 4834,
      "umpy": 4835,
      "Editor": 4836,
      "ONT": 4837,
      "Ġimg": 4838,
      "Ġheaders": 4839,
      "Ġ\"-": 4840,
      "Ġ<-": 4841,
      "âĢĿ": 4842,
      "Ġtake": 4843,
      "classes": 4844,
      "Ġbug": 4845,
      "cret": 4846,
      "reat": 4847,
      "bon": 4848,
      "csv": 4849,
      "ied": 4850,
      "uler": 4851,
      "ynchron": 4852,
      "itive": 4853,
      "aged": 4854,
      "ìł": 4855,
      "Ġbuf": 4856,
      "æķ°æį®": 4857,
      "ĠRead": 4858,
      "ident": 4859,
      "ĠService": 4860,
      "DateTime": 4861,
      "uf": 4862,
      "Gr": 4863,
      "Ġworks": 4864,
      "Ġfolder": 4865,
      "USE": 4866,
      "ĠImp": 4867,
      "ç±": 4868,
      "REQ": 4869,
      "comm": 4870,
      "reshold": 4871,
      "aut": 4872,
      "Ġind": 4873,
      "rupt": 4874,
      "losed": 4875,
      "vs": 4876,
      "aking": 4877,
      "Send": 4878,
      "Transform": 4879,
      "à§": 4880,
      "agent": 4881,
      "Find": 4882,
      "DITION": 4883,
      "aving": 4884,
      "bg": 4885,
      "}>": 4886,
      "Ġeas": 4887,
      "npm": 4888,
      "ë¥": 4889,
      "Ġtab": 4890,
      "Ġfilename": 4891,
      "aging": 4892,
      "FT": 4893,
      "Ġapply": 4894,
      "tests": 4895,
      "velopment": 4896,
      "Ġcannot": 4897,
      "rec": 4898,
      "ifact": 4899,
      "Texture": 4900,
      "small": 4901,
      "attribute": 4902,
      "Loader": 4903,
      "åĩº": 4904,
      "Ð°Ð½": 4905,
      "bus": 4906,
      "ems": 4907,
      "Ġhandler": 4908,
      "enable": 4909,
      "ĠEd": 4910,
      "white": 4911,
      "LS": 4912,
      "xs": 4913,
      "Ġbuilder": 4914,
      "tml": 4915,
      "ë¡": 4916,
      "Ġexisting": 4917,
      "Ġvariables": 4918,
      "Ġnone": 4919,
      "ood": 4920,
      "pm": 4921,
      "Rad": 4922,
      "(\"%": 4923,
      "']['": 4924,
      "Ġcluster": 4925,
      "Remove": 4926,
      "diff": 4927,
      "faces": 4928,
      "VENT": 4929,
      "(['": 4930,
      "children": 4931,
      "cmp": 4932,
      "itude": 4933,
      "ĠTABLE": 4934,
      "CHAR": 4935,
      "NotNull": 4936,
      "Ġdir": 4937,
      "coll": 4938,
      "rf": 4939,
      "Ġlaw": 4940,
      "**:": 4941,
      "nil": 4942,
      "ABILITY": 4943,
      "Ġperson": 4944,
      "alpha": 4945,
      "ertificate": 4946,
      "CF": 4947,
      "matrix": 4948,
      "ĠId": 4949,
      "Sum": 4950,
      "foreach": 4951,
      "ales": 4952,
      "Ġfr": 4953,
      "RC": 4954,
      "fully": 4955,
      "Ġ\".": 4956,
      "ĠJava": 4957,
      "ha": 4958,
      "Ġcommon": 4959,
      "Ġcompliance": 4960,
      "è½": 4961,
      "Ġwhether": 4962,
      "Ġ_,": 4963,
      "Ġpointer": 4964,
      "irc": 4965,
      "grade": 4966,
      "JECT": 4967,
      "é¢": 4968,
      "ĠCOL": 4969,
      "Ġyear": 4970,
      "hpp": 4971,
      "ĠAb": 4972,
      "ves": 4973,
      "seq": 4974,
      "Ġindic": 4975,
      "PH": 4976,
      "Ġ'../": 4977,
      "apped": 4978,
      "ĠĠĊĠĠ": 4979,
      "à¤": 4980,
      "FIG": 4981,
      "sdk": 4982,
      "?.": 4983,
      "cos": 4984,
      "grad": 4985,
      "MODE": 4986,
      "That": 4987,
      "inux": 4988,
      "Fail": 4989,
      "chedule": 4990,
      "USER": 4991,
      "ĠBAS": 4992,
      "assertEquals": 4993,
      "ÐµÑĢ": 4994,
      "æĪĳ": 4995,
      "ãģ¯": 4996,
      "ĊĠĠĠĠĠĠĠĠĠĠĠĠĠĠĠĠĠĠĠĠĠĠĠĠĠĠĠĠĠ": 4997,
      "ĠHow": 4998,
      "cn": 4999,
      "download": 5000,
      "hi": 5001,
      "DER": 5002,
      "Media": 5003,
      "ĠTe": 5004,
      "ĠEXPECT": 5005,
      "ĠPython": 5006,
      "ĠWHERE": 5007,
      "ä¼ļ": 5008,
      "Ġinteger": 5009,
      "virtual": 5010,
      "video": 5011,
      "å¤§": 5012,
      "gre": 5013,
      "}</": 5014,
      "Events": 5015,
      "Ġkeep": 5016,
      "čĊčĊĠĠĠĠĠĠĠĠĠĠĠ": 5017,
      "Ġpoints": 5018,
      "Py": 5019,
      "ãģĦ": 5020,
      "blank": 5021,
      "PU": 5022,
      "Ġconnect": 5023,
      "äºİ": 5024,
      "material": 5025,
      "(\\": 5026,
      "Expect": 5027,
      "Ġsym": 5028,
      "æĸ°": 5029,
      "Memory": 5030,
      "\\_": 5031,
      "ìĹĲ": 5032,
      "ĊĊĉĉĉ": 5033,
      "ĠSp": 5034,
      "Ġclick": 5035,
      "ĠState": 5036,
      "sig": 5037,
      "è´": 5038,
      "åħ¥": 5039,
      "greg": 5040,
      "Ġpresent": 5041,
      "ĠHash": 5042,
      "CALL": 5043,
      "Keys": 5044,
      "Ġrot": 5045,
      "Ax": 5046,
      "æĬ": 5047,
      "Domain": 5048,
      "fil": 5049,
      "Ġkeys": 5050,
      "packages": 5051,
      "ĠCL": 5052,
      "Ġlib": 5053,
      "åĲİ": 5054,
      "Ġvery": 5055,
      "ç¤": 5056,
      "Ġmetadata": 5057,
      "Ġequal": 5058,
      "ãĢĢ": 5059,
      "ilar": 5060,
      "Runtime": 5061,
      "ĠPublic": 5062,
      "redentials": 5063,
      "VM": 5064,
      "Ġonce": 5065,
      "ÐµÑĤ": 5066,
      "Att": 5067,
      "ĠArrayList": 5068,
      "Ġhad": 5069,
      "events": 5070,
      "FORM": 5071,
      "izes": 5072,
      "ateway": 5073,
      "Ġ(`": 5074,
      "=\"../": 5075,
      "Second": 5076,
      "fail": 5077,
      "HTTP": 5078,
      "ç±»": 5079,
      "ĠBoolean": 5080,
      "lates": 5081,
      "family": 5082,
      "Ġmatrix": 5083,
      "Ġclean": 5084,
      "Ġwr": 5085,
      "()));": 5086,
      "TION": 5087,
      "Dest": 5088,
      "chain": 5089,
      "headers": 5090,
      "Ġignore": 5091,
      "Ċĉĉĉĉĉĉĉĉĉĉĉĉ": 5092,
      "Ġpull": 5093,
      "ĠWhen": 5094,
      "Ġ{'": 5095,
      "Ġraw": 5096,
      "Attributes": 5097,
      "ention": 5098,
      "done": 5099,
      "angular": 5100,
      "Ġcomment": 5101,
      "IV": 5102,
      "ev": 5103,
      "atest": 5104,
      "Ġbound": 5105,
      "wrapper": 5106,
      "Ġer": 5107,
      "Word": 5108,
      "aff": 5109,
      "Ġmany": 5110,
      ">)": 5111,
      "localhost": 5112,
      "Ġcoord": 5113,
      "ï¼ī": 5114,
      "detail": 5115,
      "TWARE": 5116,
      "BB": 5117,
      "Ġinstanceof": 5118,
      "Ġbind": 5119,
      "OFTWARE": 5120,
      "MD": 5121,
      "Ġextension": 5122,
      "']);": 5123,
      "throws": 5124,
      "oost": 5125,
      "Ġ\"#": 5126,
      "Ġ\"\";": 5127,
      "ĠBASIS": 5128,
      "Ġagreed": 5129,
      "den": 5130,
      "After": 5131,
      "ĠNumber": 5132,
      "ĠCONDITION": 5133,
      "Save": 5134,
      "çº": 5135,
      "hir": 5136,
      "Ġresp": 5137,
      "Pop": 5138,
      "Ġgoverning": 5139,
      "gi": 5140,
      "\"+": 5141,
      "score": 5142,
      "ategy": 5143,
      "Space": 5144,
      "Ġgrid": 5145,
      "platform": 5146,
      "ĠÐº": 5147,
      "ìļ": 5148,
      "typeof": 5149,
      "Ġtoo": 5150,
      "fetch": 5151,
      "ê°": 5152,
      "Ġspace": 5153,
      "Gen": 5154,
      "Db": 5155,
      "sumer": 5156,
      "HR": 5157,
      "cpy": 5158,
      "ASK": 5159,
      ")](": 5160,
      ">::": 5161,
      "rome": 5162,
      "Conn": 5163,
      "Ġincl": 5164,
      "BL": 5165,
      "tsch": 5166,
      "axis": 5167,
      "ational": 5168,
      "stylesheet": 5169,
      "stats": 5170,
      "Ġaria": 5171,
      "fx": 5172,
      "parameters": 5173,
      "iterator": 5174,
      "getName": 5175,
      "Ġsup": 5176,
      "ni": 5177,
      "ĠResponse": 5178,
      "assign": 5179,
      "wp": 5180,
      "uding": 5181,
      "bootstrap": 5182,
      "()))": 5183,
      "Ġty": 5184,
      "CHE": 5185,
      "ĠCONDITIONS": 5186,
      "Ġmove": 5187,
      "Ġrequests": 5188,
      "PY": 5189,
      "Ġamount": 5190,
      "Ġlimitations": 5191,
      "ested": 5192,
      "Ġnodes": 5193,
      "Ġdraw": 5194,
      "pool": 5195,
      "Security": 5196,
      "ìĿĦ": 5197,
      "Ġalways": 5198,
      "abil": 5199,
      "ï¼Ī": 5200,
      "agnost": 5201,
      "Play": 5202,
      "åĲį": 5203,
      "Conf": 5204,
      "Ġcalcul": 5205,
      "notation": 5206,
      "æľ¬": 5207,
      "cluster": 5208,
      "Sample": 5209,
      "ĠPr": 5210,
      "åŃĹ": 5211,
      "letion": 5212,
      "Ġstructure": 5213,
      "jango": 5214,
      "STRING": 5215,
      "Ġprefix": 5216,
      "Sort": 5217,
      "aker": 5218,
      "ifest": 5219,
      "sync": 5220,
      "ados": 5221,
      "swer": 5222,
      "LETE": 5223,
      ">\\": 5224,
      "Ġreserved": 5225,
      "Ġside": 5226,
      "pair": 5227,
      "Ġcap": 5228,
      "Ġhel": 5229,
      "Ġident": 5230,
      "Ġmessages": 5231,
      "Note": 5232,
      "Ġevents": 5233,
      "ĠNS": 5234,
      "Direction": 5235,
      "ĠTR": 5236,
      "cessed": 5237,
      "Constants": 5238,
      "QU": 5239,
      "EY": 5240,
      "blog": 5241,
      "&#": 5242,
      "Scale": 5243,
      "alance": 5244,
      "ina": 5245,
      "ĠĊĠ": 5246,
      "Ġdf": 5247,
      "Common": 5248,
      "Ġdat": 5249,
      "Ġprintf": 5250,
      "ĠÐ¾": 5251,
      "DATE": 5252,
      "ç«": 5253,
      "resp": 5254,
      "ĠAction": 5255,
      "ĠBuild": 5256,
      "vers": 5257,
      "pare": 5258,
      "Azure": 5259,
      "mbers": 5260,
      "library": 5261,
      "Ġfe": 5262,
      "Ġsys": 5263,
      "Ġfixed": 5264,
      "çĤ": 5265,
      "Flag": 5266,
      "throw": 5267,
      "Ġuses": 5268,
      "________": 5269,
      "Socket": 5270,
      "Ġscale": 5271,
      "rv": 5272,
      "ours": 5273,
      "/{": 5274,
      "Ġpattern": 5275,
      "Ġloop": 5276,
      "ĠPO": 5277,
      "eek": 5278,
      "Ġmenu": 5279,
      "poch": 5280,
      "Art": 5281,
      "super": 5282,
      "\\/": 5283,
      "ets": 5284,
      "Cmd": 5285,
      "rule": 5286,
      "atio": 5287,
      "Ġcontribut": 5288,
      "plac": 5289,
      "inf": 5290,
      "Progress": 5291,
      "resolve": 5292,
      "Ġrefer": 5293,
      "æı": 5294,
      "Detail": 5295,
      "Failed": 5296,
      "padding": 5297,
      "ĠâĶĤ": 5298,
      "aries": 5299,
      "ANG": 5300,
      "Ġda": 5301,
      "Simple": 5302,
      "ica": 5303,
      "ĠPlease": 5304,
      "Ġcore": 5305,
      "Example": 5306,
      "assertEqual": 5307,
      "orizont": 5308,
      "Ġve": 5309,
      "]))": 5310,
      "optional": 5311,
      "åıĳ": 5312,
      "brief": 5313,
      "Ġbinary": 5314,
      "FC": 5315,
      "Ġoptional": 5316,
      "Ġ^": 5317,
      "Ġbest": 5318,
      "Ġsolution": 5319,
      "Ġable": 5320,
      "ILE": 5321,
      "udo": 5322,
      "Ġ'#": 5323,
      "ĠSH": 5324,
      "tre": 5325,
      "ĠUI": 5326,
      "aven": 5327,
      "uber": 5328,
      "ral": 5329,
      "ctor": 5330,
      "typedef": 5331,
      "protected": 5332,
      "Login": 5333,
      "Ġbatch": 5334,
      "va": 5335,
      "Ġassign": 5336,
      "veloper": 5337,
      "}`": 5338,
      ".\\": 5339,
      "Ġ{};": 5340,
      "latest": 5341,
      "Ġfill": 5342,
      "Ġ\"'": 5343,
      "rd": 5344,
      "Ids": 5345,
      "åº¦": 5346,
      "Ġrepository": 5347,
      "crement": 5348,
      "Desc": 5349,
      "kwargs": 5350,
      "Ġ---": 5351,
      "Sql": 5352,
      "uit": 5353,
      "Ñħ": 5354,
      "ç¬": 5355,
      "ople": 5356,
      "ĠĠĊ": 5357,
      "Bean": 5358,
      "ç¨ĭ": 5359,
      "åĬł": 5360,
      "Ġ$('#": 5361,
      "Ġenable": 5362,
      "rot": 5363,
      "LOCK": 5364,
      "icons": 5365,
      "Ġneeded": 5366,
      "_{": 5367,
      "cogn": 5368,
      "Ġtf": 5369,
      "Ġmodify": 5370,
      "Condition": 5371,
      "requ": 5372,
      "Ġcharacter": 5373,
      "ĠÐ´": 5374,
      "ADD": 5375,
      "pag": 5376,
      ".\");": 5377,
      "Ċĉĉĉĉĉĉĉĉĉ": 5378,
      "Ġschema": 5379,
      "ped": 5380,
      "driver": 5381,
      "stand": 5382,
      "logo": 5383,
      "tar": 5384,
      "Selection": 5385,
      "Ġchanged": 5386,
      "Fin": 5387,
      "forEach": 5388,
      "Registry": 5389,
      "resources": 5390,
      "bash": 5391,
      "Dim": 5392,
      "NU": 5393,
      "Ġexists": 5394,
      "hl": 5395,
      "Ġrem": 5396,
      "ĠValid": 5397,
      "Ġ$_": 5398,
      "gs": 5399,
      "lev": 5400,
      "Proxy": 5401,
      "ĠĊĠĠĠĠ": 5402,
      "ãĤ¤": 5403,
      "ĠPath": 5404,
      "Ġsubject": 5405,
      "tl": 5406,
      "=\"<?": 5407,
      "Ġadditional": 5408,
      "ĠMethod": 5409,
      "Ġnotice": 5410,
      "allet": 5411,
      "ĠDep": 5412,
      "ural": 5413,
      "Mut": 5414,
      "ĠStatus": 5415,
      "ĠUnless": 5416,
      "avigation": 5417,
      "iddleware": 5418,
      "Ġdriver": 5419,
      "orrect": 5420,
      "Ġunt": 5421,
      "OD": 5422,
      "Ġfeatures": 5423,
      "Ġpassed": 5424,
      "Required": 5425,
      "ĠProject": 5426,
      "ĠSOFTWARE": 5427,
      "æŀľ": 5428,
      "Prefix": 5429,
      "Ġsupported": 5430,
      "icode": 5431,
      "capt": 5432,
      "ĠFound": 5433,
      "Section": 5434,
      "æİ¥": 5435,
      "ARG": 5436,
      "Ġattributes": 5437,
      "endor": 5438,
      "Ġbrowser": 5439,
      "istic": 5440,
      "Ġgot": 5441,
      "CB": 5442,
      ")\\": 5443,
      "Ġidx": 5444,
      "Java": 5445,
      "roke": 5446,
      "plus": 5447,
      "Ł¥": 5448,
      "Ġlock": 5449,
      "ndef": 5450,
      "peat": 5451,
      "Ġlines": 5452,
      "activ": 5453,
      "Ġsl": 5454,
      "ĠLI": 5455,
      "'d": 5456,
      "Ð¾Ð»": 5457,
      "Ġlayer": 5458,
      "ĠColor": 5459,
      "Pair": 5460,
      "Vol": 5461,
      "istent": 5462,
      "ĠFl": 5463,
      "INTER": 5464,
      ",-": 5465,
      "Services": 5466,
      "El": 5467,
      "phone": 5468,
      "à°": 5469,
      "timeout": 5470,
      "Ġ\"%": 5471,
      "DA": 5472,
      "Ġdict": 5473,
      "Ġflex": 5474,
      "trim": 5475,
      "Constant": 5476,
      "lier": 5477,
      "kind": 5478,
      "æĽ": 5479,
      "decode": 5480,
      "Ġsepar": 5481,
      "Enumer": 5482,
      "Results": 5483,
      "nodes": 5484,
      "asset": 5485,
      "PP": 5486,
      "åŃĺ": 5487,
      "%%%%%%%%": 5488,
      "GER": 5489,
      "topic": 5490,
      "ĠCan": 5491,
      "tc": 5492,
      "ience": 5493,
      "blue": 5494,
      "Decl": 5495,
      "Ġconditions": 5496,
      "after": 5497,
      "å¼ı": 5498,
      "äºº": 5499,
      "ĠAR": 5500,
      "Opt": 5501,
      "termin": 5502,
      "toBe": 5503,
      "cons": 5504,
      "ana": 5505,
      "=\"\"": 5506,
      "Ġappend": 5507,
      "ĠSE": 5508,
      "orizontal": 5509,
      "Statement": 5510,
      "NUM": 5511,
      "Errorf": 5512,
      "Ġ#[": 5513,
      "shift": 5514,
      "ĠIF": 5515,
      "ĠMod": 5516,
      "fi": 5517,
      "Scope": 5518,
      "Protocol": 5519,
      "æģ": 5520,
      "sched": 5521,
      "azy": 5522,
      "Ġdescribe": 5523,
      "Ġna": 5524,
      "marks": 5525,
      "Pattern": 5526,
      "loss": 5527,
      "straints": 5528,
      "cour": 5529,
      "each": 5530,
      "Ġaccept": 5531,
      "ks": 5532,
      "Ġ##": 5533,
      "ĠAr": 5534,
      "Ġqueue": 5535,
      "setup": 5536,
      "acion": 5537,
      "Ġ[],": 5538,
      "ifndef": 5539,
      "ÄŁ": 5540,
      "Cap": 5541,
      "uest": 5542,
      "Ġthose": 5543,
      "while": 5544,
      "uplic": 5545,
      "ĠSec": 5546,
      "ysql": 5547,
      "bose": 5548,
      "Ġinvalid": 5549,
      "Ġcopyright": 5550,
      "Identifier": 5551,
      "tle": 5552,
      "Ġroute": 5553,
      "Ġden": 5554,
      "generate": 5555,
      "force": 5556,
      "sup": 5557,
      "Bo": 5558,
      "contact": 5559,
      "Ġabstract": 5560,
      "ë¥¼": 5561,
      "Ġsmall": 5562,
      "ikari": 5563,
      "(\"\\": 5564,
      "ĠTable": 5565,
      "before": 5566,
      "Ġinsert": 5567,
      "amount": 5568,
      "Ġgit": 5569,
      "Ġart": 5570,
      "ĠCH": 5571,
      "Effect": 5572,
      "plugins": 5573,
      "ìŀ": 5574,
      "icles": 5575,
      "Ġsql": 5576,
      "Cloud": 5577,
      "sha": 5578,
      "shop": 5579,
      "ĊĠĠĠĠĠĠĠĠĠĠĠĠĠĠĠĠĠĠĠĠĠĠ": 5580,
      "memory": 5581,
      "ĠRow": 5582,
      "ë¡ľ": 5583,
      "Ġcr": 5584,
      "Area": 5585,
      "Ġbranch": 5586,
      "esh": 5587,
      "ny": 5588,
      "Ġprops": 5589,
      "ĠGit": 5590,
      "ĠKEY": 5591,
      "ONG": 5592,
      "uting": 5593,
      "âķĲ": 5594,
      "Rate": 5595,
      "Ġund": 5596,
      "Abstract": 5597,
      "times": 5598,
      "prev": 5599,
      "dia": 5600,
      "ĠOutput": 5601,
      "ĠDescription": 5602,
      "èµ": 5603,
      "Ġxml": 5604,
      "ĊĠĠĠĠĠĠĠĠĠĠĠĠĠĠĠĠĠĠĠĠĠĠĠĠĠĠĠĠĠĠĠĠĠĠĠĠĠĠĠĠĠĠĠĠĠĠĠĠĠĠĠ": 5605,
      "Scroll": 5606,
      "ĠTH": 5607,
      "front": 5608,
      "moved": 5609,
      "Ġmade": 5610,
      "Ġadmin": 5611,
      "Ġattr": 5612,
      "DK": 5613,
      "Ġ\"./": 5614,
      "Ġdesc": 5615,
      "parameter": 5616,
      "getElementById": 5617,
      "ĠQu": 5618,
      "istics": 5619,
      "Price": 5620,
      "ĠChange": 5621,
      "pattern": 5622,
      "Ġdefine": 5623,
      "Ð·": 5624,
      "åīį": 5625,
      "Ġterm": 5626,
      "timestamp": 5627,
      "Ġnullptr": 5628,
      "Ġ'.": 5629,
      ")[": 5630,
      "Ġmuch": 5631,
      "SM": 5632,
      "ĠCo": 5633,
      "åĽŀ": 5634,
      "çł": 5635,
      "=\"_": 5636,
      "Ġplatform": 5637,
      "anization": 5638,
      "catch": 5639,
      "Mapper": 5640,
      "æµ": 5641,
      "Ġdeploy": 5642,
      "Coord": 5643,
      "Ġfetch": 5644,
      "owner": 5645,
      "zone": 5646,
      "Vertex": 5647,
      "flex": 5648,
      "plan": 5649,
      "Ali": 5650,
      "Ġà¦": 5651,
      "ãģĮ": 5652,
      "Folder": 5653,
      "ĠCall": 5654,
      "ORY": 5655,
      "æĿ¥": 5656,
      "ases": 5657,
      "Ġdefinition": 5658,
      "ĠThanks": 5659,
      "pages": 5660,
      "oice": 5661,
      "ê³": 5662,
      "ĠOptional": 5663,
      "OM": 5664,
      "Ġtorch": 5665,
      "uted": 5666,
      "Ġissues": 5667,
      "sembly": 5668,
      "Ġneeds": 5669,
      "Before": 5670,
      "Visible": 5671,
      "Ġreset": 5672,
      "oment": 5673,
      "åı¯ä»¥": 5674,
      "Ġredirect": 5675,
      "BIT": 5676,
      "fficient": 5677,
      "æĭ": 5678,
      "Ġplaceholder": 5679,
      "ĠClient": 5680,
      "fff": 5681,
      "ĊĊĠĠĠĠĠĠĠĠĠ": 5682,
      "ãģ¨": 5683,
      "ura": 5684,
      "ĠÃ©": 5685,
      "Ġtyp": 5686,
      "directory": 5687,
      "+\"": 5688,
      "VID": 5689,
      "dig": 5690,
      "alf": 5691,
      "sb": 5692,
      "Ġdev": 5693,
      "/\"": 5694,
      "Mar": 5695,
      "SW": 5696,
      "ĠField": 5697,
      "ãĥ¼ãĥ": 5698,
      "ti": 5699,
      "aim": 5700,
      "ico": 5701,
      "Ð°ÑĤ": 5702,
      "LOAD": 5703,
      "dart": 5704,
      "ummy": 5705,
      "sq": 5706,
      "ĠĠĠĠĠĠĠĠĠĠĠĠĠĠĠĠĠ": 5707,
      "coord": 5708,
      "dataset": 5709,
      "Ġbar": 5710,
      "ili": 5711,
      "Ġmean": 5712,
      "ione": 5713,
      "unique": 5714,
      "ĠComponent": 5715,
      "ĠON": 5716,
      ".<": 5717,
      "warning": 5718,
      "Gu": 5719,
      "ì§": 5720,
      "CCESS": 5721,
      "Warning": 5722,
      "ably": 5723,
      "imate": 5724,
      "æ¯": 5725,
      "agma": 5726,
      "Ġchildren": 5727,
      "Math": 5728,
      "Uri": 5729,
      "ĠCommand": 5730,
      "->_": 5731,
      "protocol": 5732,
      "city": 5733,
      "fire": 5734,
      "ota": 5735,
      "trace": 5736,
      "ĠØ": 5737,
      "è¿ĩ": 5738,
      "editor": 5739,
      "Iterator": 5740,
      "XML": 5741,
      ")\",": 5742,
      "RP": 5743,
      "legal": 5744,
      "Å¾": 5745,
      "Ġshift": 5746,
      "ç¤º": 5747,
      "Ġflags": 5748,
      "ters": 5749,
      "ism": 5750,
      "Ġlogging": 5751,
      "Len": 5752,
      "Ġimages": 5753,
      "objects": 5754,
      "Ġexecute": 5755,
      "Program": 5756,
      "iform": 5757,
      "Ġcause": 5758,
      "]),": 5759,
      "Ġrule": 5760,
      "ubernet": 5761,
      "Ġìŀ": 5762,
      "Fragment": 5763,
      "Ġassociated": 5764,
      "IVE": 5765,
      "Interval": 5766,
      "Ġsetting": 5767,
      "rollers": 5768,
      "Ġeffect": 5769,
      "ÙĦ": 5770,
      "TF": 5771,
      "COMP": 5772,
      "lower": 5773,
      "note": 5774,
      "VS": 5775,
      "sz": 5776,
      "Background": 5777,
      "cry": 5778,
      "Stats": 5779,
      "Ġpur": 5780,
      "ourse": 5781,
      "ĠInitial": 5782,
      "Ġhead": 5783,
      "ĠLOG": 5784,
      "Move": 5785,
      "ubernetes": 5786,
      "cha": 5787,
      "ĠVer": 5788,
      "ãĤ¯": 5789,
      "quiv": 5790,
      ":`": 5791,
      "ror": 5792,
      "Ġrows": 5793,
      "router": 5794,
      "Ġetc": 5795,
      "ĠHTML": 5796,
      "When": 5797,
      "invalid": 5798,
      "Ġ',": 5799,
      "éĹ´": 5800,
      "program": 5801,
      "factory": 5802,
      "IAL": 5803,
      "(\".": 5804,
      "TA": 5805,
      "çŃ": 5806,
      "ij": 5807,
      "Ġpayload": 5808,
      "ĠSET": 5809,
      "Ġworld": 5810,
      "servable": 5811,
      "verage": 5812,
      "ones": 5813,
      "Ġautomatic": 5814,
      "DEFAULT": 5815,
      "road": 5816,
      "Ġmember": 5817,
      "atar": 5818,
      "oll": 5819,
      "Release": 5820,
      "ĠPh": 5821,
      "ivers": 5822,
      "Ġunique": 5823,
      "sy": 5824,
      "ĠThere": 5825,
      "disable": 5826,
      "Modal": 5827,
      "scroll": 5828,
      "Limit": 5829,
      "Ġday": 5830,
      "integer": 5831,
      "]['": 5832,
      "ifications": 5833,
      "inv": 5834,
      "lished": 5835,
      "igration": 5836,
      "Orig": 5837,
      "otion": 5838,
      "Ġmissing": 5839,
      "¾ãģĻ": 5840,
      "chart": 5841,
      "ĠOb": 5842,
      "Ġarch": 5843,
      "Ġdownload": 5844,
      "hide": 5845,
      "ÅĻ": 5846,
      "MAP": 5847,
      "arge": 5848,
      "Ġpush": 5849,
      "Unknown": 5850,
      "Ġ./": 5851,
      ">\"": 5852,
      "ison": 5853,
      "à¯": 5854,
      "attributes": 5855,
      "loop": 5856,
      "ĠNote": 5857,
      "===": 5858,
      "Ġintegr": 5859,
      "strict": 5860,
      "Ġdiff": 5861,
      "acters": 5862,
      "NN": 5863,
      "çĤ¹": 5864,
      "Ġbehavior": 5865,
      "'].": 5866,
      "åĻ": 5867,
      ">`": 5868,
      "SCR": 5869,
      "Ġsv": 5870,
      "ycle": 5871,
      "Ġstrings": 5872,
      "ä¿¡": 5873,
      "edge": 5874,
      "ìĬ": 5875,
      "ĠMat": 5876,
      "Ġtrain": 5877,
      "ture": 5878,
      "world": 5879,
      "ble": 5880,
      "proxy": 5881,
      "Ġtimeout": 5882,
      "Contact": 5883,
      "Attr": 5884,
      "Ġrepo": 5885,
      "WHEN": 5886,
      "Library": 5887,
      "------------------------------------------------": 5888,
      "LOW": 5889,
      "ĠJson": 5890,
      "zen": 5891,
      "Ġenabled": 5892,
      "hip": 5893,
      "aybe": 5894,
      "Ġresolve": 5895,
      "team": 5896,
      "Ġotherwise": 5897,
      "Ġrelated": 5898,
      "MI": 5899,
      "Ġdomain": 5900,
      "voice": 5901,
      "Ġrad": 5902,
      "čĊčĊĠ": 5903,
      "ĠTEST": 5904,
      "AAAA": 5905,
      "aper": 5906,
      "loaded": 5907,
      "Sequence": 5908,
      "ĠERR": 5909,
      "Binding": 5910,
      "ĊĠĠĠĠĠĠĠĠĠĠĠĠĠĠĠĠĠĠĠĠĠĠĠĠĠĠĠĠĠĠĠĠĠĠĠĠĠĠĠĠĠĠĠĠĠĠĠĠĠĠĠĠĠĠĠĠĠĠĠĠĠĠĠĠ": 5911,
      "Ãª": 5912,
      "ĠMon": 5913,
      "EQUAL": 5914,
      "Ġscal": 5915,
      "complete": 5916,
      "ando": 5917,
      "Ġ'''": 5918,
      "Nodes": 5919,
      "_(": 5920,
      "windows": 5921,
      "LOC": 5922,
      "Namespace": 5923,
      "VALID": 5924,
      "quare": 5925,
      "month": 5926,
      "lint": 5927,
      "Ġ-=": 5928,
      "FONT": 5929,
      "čĊčĊĉ": 5930,
      "rive": 5931,
      "Ret": 5932,
      "èĩª": 5933,
      "swing": 5934,
      "ĠìĿ": 5935,
      "obile": 5936,
      "Ġcurrently": 5937,
      "UTH": 5938,
      "âķĲâķĲ": 5939,
      "Ġcontroller": 5940,
      "Ġarr": 5941,
      "ini": 5942,
      "ÅĤ": 5943,
      "åĻ¨": 5944,
      "Ġduring": 5945,
      "Framework": 5946,
      "åĬ¨": 5947,
      "sent": 5948,
      "THER": 5949,
      "Ġtypeof": 5950,
      "Begin": 5951,
      "Stat": 5952,
      "Ġzero": 5953,
      "ĠðŁ": 5954,
      "dump": 5955,
      "Amount": 5956,
      "Ġtags": 5957,
      "ĠExample": 5958,
      "emo": 5959,
      "Ġkernel": 5960,
      "++++": 5961,
      "dialog": 5962,
      "xE": 5963,
      "Bool": 5964,
      "STATUS": 5965,
      "bits": 5966,
      "Ġmask": 5967,
      "ĠWrite": 5968,
      "skip": 5969,
      "ĠCl": 5970,
      "ĠHREF": 5971,
      "NotFound": 5972,
      "Ġalert": 5973,
      "Ġterms": 5974,
      "convert": 5975,
      "Ġincluded": 5976,
      "features": 5977,
      "Ġarea": 5978,
      "ĠTemp": 5979,
      "Language": 5980,
      "Normal": 5981,
      "Ġreason": 5982,
      "Static": 5983,
      "Ġdataset": 5984,
      "Vec": 5985,
      "VALUE": 5986,
      "Ġwarning": 5987,
      "DIS": 5988,
      "allel": 5989,
      "configuration": 5990,
      "\\\",": 5991,
      "ĠINT": 5992,
      "Ġfs": 5993,
      "dp": 5994,
      "æīĢ": 5995,
      "ìĿĺ": 5996,
      "Bus": 5997,
      "Public": 5998,
      "AF": 5999,
      "por": 6000,
      "Ġ({": 6001,
      "ands": 6002,
      "room": 6003,
      "emon": 6004,
      "çľ": 6005,
      "Ġdec": 6006,
      "labels": 6007,
      "åŀ": 6008,
      "wt": 6009,
      "mob": 6010,
      "cker": 6011,
      ":-": 6012,
      "Ġnote": 6013,
      "structure": 6014,
      "anger": 6015,
      "Person": 6016,
      "&&": 6017,
      "Sim": 6018,
      "andid": 6019,
      "Ġplt": 6020,
      "ĠPage": 6021,
      "omite": 6022,
      "formed": 6023,
      "radius": 6024,
      "TEXT": 6025,
      "icip": 6026,
      "utorial": 6027,
      "=\"\">": 6028,
      "SV": 6029,
      "Äħ": 6030,
      "ĠĠĠĠĠĠĠĠĠĠĠĠĠĠĠĠĠĠ": 6031,
      "beta": 6032,
      "ELD": 6033,
      "lambda": 6034,
      "åĢ¼": 6035,
      "munity": 6036,
      "Ġ×": 6037,
      "YPE": 6038,
      "ĠĠĠĠĠĠĠĠĠĠĠĠĠĠĠĠĠĠĠĠ": 6039,
      "UNT": 6040,
      "ĠCustom": 6041,
      "Mouse": 6042,
      "omitempty": 6043,
      "Ġvideo": 6044,
      "when": 6045,
      "CREATE": 6046,
      "æ±": 6047,
      "ĊĠĠĠĠĠĠĠĠĠĠĠĠĠĠĠĠĠĠĠĠĠĠĠĠĠĠ": 6048,
      "odo": 6049,
      "éģ": 6050,
      "Ġvalidate": 6051,
      "Ġclasses": 6052,
      "ipe": 6053,
      "TL": 6054,
      "ĠDet": 6055,
      "ĊĠĠĠĠĠĠĠĠĠĠĠĠĠĠĠĠĠĠĠĠĠĠĠĠĠĠĠĠ": 6056,
      "yaml": 6057,
      "å®ŀ": 6058,
      "antity": 6059,
      "policy": 6060,
      "Resources": 6061,
      "'}": 6062,
      "Env": 6063,
      "clean": 6064,
      "lik": 6065,
      "ĠAL": 6066,
      "ĠGame": 6067,
      "----------": 6068,
      "urs": 6069,
      "mc": 6070,
      "Region": 6071,
      "ĠOTHER": 6072,
      "Ġshape": 6073,
      "some": 6074,
      "typename": 6075,
      "compare": 6076,
      "ached": 6077,
      "aciÃ³n": 6078,
      "resses": 6079,
      "uario": 6080,
      ":%": 6081,
      "cribe": 6082,
      "Ãł": 6083,
      "Ġmeans": 6084,
      "share": 6085,
      "Video": 6086,
      "Acc": 6087,
      "Symbol": 6088,
      "Fr": 6089,
      ":'": 6090,
      "Ġresources": 6091,
      "avel": 6092,
      "pet": 6093,
      "=[": 6094,
      "`:": 6095,
      "Ġmeta": 6096,
      "merge": 6097,
      "Ġruntime": 6098,
      "Ġtheme": 6099,
      "Ġaxis": 6100,
      "Ġ\\\\": 6101,
      "mploy": 6102,
      "Go": 6103,
      "anced": 6104,
      "conv": 6105,
      "Ġbetter": 6106,
      "éĢļ": 6107,
      "pear": 6108,
      "slice": 6109,
      "WAR": 6110,
      "Ġexecution": 6111,
      "Ġexpression": 6112,
      "STATE": 6113,
      "ino": 6114,
      "è®¾": 6115,
      "Īëĭ¤": 6116,
      "alyt": 6117,
      "Light": 6118,
      "tbody": 6119,
      "Ġpair": 6120,
      "Ġ'\"": 6121,
      "loor": 6122,
      "ĠEnt": 6123,
      "Random": 6124,
      "Ġrest": 6125,
      "åĬ¡": 6126,
      "Ġsb": 6127,
      "Ġide": 6128,
      "argv": 6129,
      "ĠLink": 6130,
      "scriptor": 6131,
      "Ġ'';": 6132,
      "gistration": 6133,
      "ĠUSE": 6134,
      "éĶ": 6135,
      "Pass": 6136,
      "Native": 6137,
      "Ġreview": 6138,
      "æģ¯": 6139,
      "days": 6140,
      "Execution": 6141,
      "=%": 6142,
      "ĠCHE": 6143,
      "UND": 6144,
      "Sl": 6145,
      "Ġlater": 6146,
      "EC": 6147,
      "Ġtransaction": 6148,
      "cout": 6149,
      "Agent": 6150,
      "pad": 6151,
      "Ġverify": 6152,
      "ĠGeneral": 6153,
      "dec": 6154,
      "SB": 6155,
      "dn": 6156,
      "awn": 6157,
      "Expr": 6158,
      "uffix": 6159,
      "]],": 6160,
      "covery": 6161,
      "æĸĩä»¶": 6162,
      "ĠUs": 6163,
      "orn": 6164,
      "Ġcolumns": 6165,
      "isset": 6166,
      "Ġalloc": 6167,
      "Ġsplit": 6168,
      "oper": 6169,
      "ĠHelper": 6170,
      "Export": 6171,
      "ç¼": 6172,
      "columns": 6173,
      "Depend": 6174,
      "Ġcop": 6175,
      "]+": 6176,
      "riteria": 6177,
      "âĸĪ": 6178,
      "Ġcomplete": 6179,
      "å»": 6180,
      "craft": 6181,
      "LEN": 6182,
      "external": 6183,
      "chat": 6184,
      "BASE": 6185,
      "ĠIlluminate": 6186,
      "zero": 6187,
      "Ġblack": 6188,
      "Ġevalu": 6189,
      "collect": 6190,
      "sel": 6191,
      "Ġ{%": 6192,
      "mean": 6193,
      "Ġargv": 6194,
      "čĊĉĉĉĉĉ": 6195,
      "CONFIG": 6196,
      "Ġsur": 6197,
      "()),": 6198,
      "æĪ·": 6199,
      "Raw": 6200,
      "Ġreader": 6201,
      "Sup": 6202,
      "Duration": 6203,
      "folder": 6204,
      "ĊĊĠĠĠĠĠĠĠĠĠĠĠĠĠĠĠĠĠĠĠĠĠĠĠ": 6205,
      "izing": 6206,
      "Ġkind": 6207,
      "ĠWhat": 6208,
      "åĨħ": 6209,
      "ç´": 6210,
      "**.": 6211,
      "Ġlogin": 6212,
      "ĠAny": 6213,
      "Ñİ": 6214,
      "coded": 6215,
      "å¼Ģ": 6216,
      "cus": 6217,
      "ĠCHECK": 6218,
      "YY": 6219,
      "çĶŁ": 6220,
      "ativ": 6221,
      "ĠDocument": 6222,
      "icket": 6223,
      "za": 6224,
      "umul": 6225,
      "Ġcursor": 6226,
      "INCL": 6227,
      "Contract": 6228,
      "OO": 6229,
      "Multi": 6230,
      "AI": 6231,
      "review": 6232,
      "Ġcategory": 6233,
      "Ġuntil": 6234,
      "ĠAuth": 6235,
      "ãģĻãĤĭ": 6236,
      "COLOR": 6237,
      "atomic": 6238,
      "CHECK": 6239,
      "|.": 6240,
      "Ġsocket": 6241,
      "æĢ§": 6242,
      "âĶĢâĶĢâĶĢâĶĢ": 6243,
      "Ġstandard": 6244,
      "Ġil": 6245,
      "ocial": 6246,
      "Ġleast": 6247,
      "await": 6248,
      "Nd": 6249,
      "ribution": 6250,
      "Tip": 6251,
      "Ġincluding": 6252,
      "Ġseems": 6253,
      "Ġnecess": 6254,
      "mediate": 6255,
      "Join": 6256,
      "like": 6257,
      "Notification": 6258,
      "RECT": 6259,
      "Drop": 6260,
      "ĠContent": 6261,
      "æĥ": 6262,
      "ond": 6263,
      "subject": 6264,
      "ĠAuthor": 6265,
      "UTF": 6266,
      "gb": 6267,
      "åŀĭ": 6268,
      "Term": 6269,
      "ÐµÐ½Ð¸": 6270,
      "found": 6271,
      "payload": 6272,
      "Headers": 6273,
      "ĠVis": 6274,
      "BY": 6275,
      "Ð±": 6276,
      "çłģ": 6277,
      "ula": 6278,
      "Ġ([": 6279,
      "munic": 6280,
      "ĠGET": 6281,
      "mutable": 6282,
      "Ġprofile": 6283,
      "Single": 6284,
      "Ġactiv": 6285,
      "DT": 6286,
      "************************************************************************": 6287,
      "éĿ¢": 6288,
      "Mask": 6289,
      "single": 6290,
      "Ġrepro": 6291,
      "Ġ}}</": 6292,
      "serialize": 6293,
      "COMM": 6294,
      "dst": 6295,
      "messages": 6296,
      "ĠResource": 6297,
      "ighb": 6298,
      "\">\\": 6299,
      "ĠIOException": 6300,
      "deploy": 6301,
      "cpu": 6302,
      "Day": 6303,
      "derr": 6304,
      "Ġdu": 6305,
      "éħ": 6306,
      "Ġ'../../": 6307,
      "mas": 6308,
      "æ¬": 6309,
      "Ġdrop": 6310,
      "è¯·": 6311,
      "ãĤĮ": 6312,
      "Īĺ": 6313,
      "Ġlight": 6314,
      "Ġconsider": 6315,
      "ANCE": 6316,
      "cedure": 6317,
      "lu": 6318,
      "atter": 6319,
      "Ġyet": 6320,
      "reader": 6321,
      "construct": 6322,
      "mpt": 6323,
      "ality": 6324,
      "çĽ®": 6325,
      "ĠOk": 6326,
      "Comment": 6327,
      "Ġ\"${": 6328,
      "Validation": 6329,
      "cut": 6330,
      "ventory": 6331,
      "ĠSupport": 6332,
      "depth": 6333,
      "Chart": 6334,
      "repository": 6335,
      "pid": 6336,
      "ĠItem": 6337,
      "RUN": 6338,
      "Ġstat": 6339,
      "riend": 6340,
      "](../": 6341,
      "Environment": 6342,
      "igr": 6343,
      "URI": 6344,
      "ulum": 6345,
      "ially": 6346,
      "Material": 6347,
      "åŁ": 6348,
      "vlet": 6349,
      "gnore": 6350,
      "Ġtesting": 6351,
      "ĠWork": 6352,
      "groups": 6353,
      "ookie": 6354,
      "Ġcorrespon": 6355,
      "Ġtimestamp": 6356,
      "æ²": 6357,
      "Inv": 6358,
      "Ùħ": 6359,
      "FD": 6360,
      "Ġcomponents": 6361,
      "MenuItem": 6362,
      "åĲĪ": 6363,
      "Ġcommands": 6364,
      "ceed": 6365,
      "ĠDi": 6366,
      "ĠInc": 6367,
      "#[": 6368,
      "Sm": 6369,
      "Axis": 6370,
      "clone": 6371,
      "******": 6372,
      "seconds": 6373,
      "ĠLong": 6374,
      "opts": 6375,
      "ife": 6376,
      "references": 6377,
      "Ġcar": 6378,
      "updated": 6379,
      "incip": 6380,
      "ĠÑ": 6381,
      "TRUE": 6382,
      "Ġ[`": 6383,
      "undefined": 6384,
      "Ġlayout": 6385,
      "Ġuseful": 6386,
      "sch": 6387,
      "ĠMem": 6388,
      "Messages": 6389,
      "provider": 6390,
      "ĠSource": 6391,
      "Ġdocker": 6392,
      "ruby": 6393,
      "RESULT": 6394,
      "åĿ": 6395,
      "è¨": 6396,
      "Ġthings": 6397,
      "Controls": 6398,
      "Ġcover": 6399,
      "æľĢ": 6400,
      "isEmpty": 6401,
      "acle": 6402,
      "å°±": 6403,
      "basic": 6404,
      "Ġspecify": 6405,
      "è¿Ľ": 6406,
      "éľ": 6407,
      "ĠPost": 6408,
      "fun": 6409,
      "è°": 6410,
      "Ġreally": 6411,
      "stmt": 6412,
      "generated": 6413,
      "Ġopts": 6414,
      "includes": 6415,
      "aration": 6416,
      "hover": 6417,
      "demo": 6418,
      "ĠUN": 6419,
      "åįķ": 6420,
      "ĠIl": 6421,
      "ãĥª": 6422,
      "Timer": 6423,
      "Mis": 6424,
      "Oper": 6425,
      "Ġmac": 6426,
      "person": 6427,
      "Ð¾ÑĢ": 6428,
      "ĠMake": 6429,
      "tection": 6430,
      ".',": 6431,
      "idual": 6432,
      "ĠSto": 6433,
      "ĠIndex": 6434,
      "achment": 6435,
      "look": 6436,
      "Ind": 6437,
      "Setup": 6438,
      "wiki": 6439,
      "íķľ": 6440,
      "ĠCal": 6441,
      "åºĶ": 6442,
      "FIX": 6443,
      "LA": 6444,
      "FUN": 6445,
      "repo": 6446,
      "Html": 6447,
      "Ġê°": 6448,
      "ster": 6449,
      "Ġdependencies": 6450,
      "Ġpd": 6451,
      "astic": 6452,
      "Ro": 6453,
      "Ġpers": 6454,
      "ĊĠĠĠĠĠĠĠĠĠĠĠĠĊĠĠĠĠĠĠĠĠĠĠĠ": 6455,
      "Owner": 6456,
      "FIELD": 6457,
      "rand": 6458,
      "Ġcert": 6459,
      "ĠPoint": 6460,
      "cip": 6461,
      ";<": 6462,
      "sf": 6463,
      "uda": 6464,
      "è·": 6465,
      ">'": 6466,
      "serve": 6467,
      "bucket": 6468,
      "star": 6469,
      "Renderer": 6470,
      "Ġutf": 6471,
      "================================================================": 6472,
      "Should": 6473,
      "ĠÐ¿ÑĢ": 6474,
      "Ġsubmit": 6475,
      "Ġdescri": 6476,
      "arrow": 6477,
      "ĠGraph": 6478,
      "SR": 6479,
      "ASSERT": 6480,
      "åıĤ": 6481,
      "VICE": 6482,
      "Ġ'-": 6483,
      "ĠProperty": 6484,
      "ĠWith": 6485,
      "](../../": 6486,
      "gg": 6487,
      "ceiver": 6488,
      "Counter": 6489,
      "ssl": 6490,
      "ĠRemove": 6491,
      "Span": 6492,
      "Ġ$(\"#": 6493,
      "Wait": 6494,
      "Ġtx": 6495,
      "Stop": 6496,
      "ĠConsole": 6497,
      "Ġrelative": 6498,
      "-------------": 6499,
      ")|": 6500,
      "å¥": 6501,
      "Pe": 6502,
      "history": 6503,
      "Ġpermission": 6504,
      "ĠSw": 6505,
      ")?": 6506,
      "Ġteam": 6507,
      "scala": 6508,
      "Ð¾Ð´": 6509,
      "[-": 6510,
      "$$": 6511,
      "Org": 6512,
      "Ã¤r": 6513,
      "inates": 6514,
      "kernel": 6515,
      "UEST": 6516,
      "RIGHT": 6517,
      "Lib": 6518,
      "¸°": 6519,
      "ĠToken": 6520,
      "Converter": 6521,
      "lipse": 6522,
      "validation": 6523,
      "Ġtimes": 6524,
      "å¤ļ": 6525,
      "ãĥ¼ãĤ": 6526,
      "Ġstrict": 6527,
      "uce": 6528,
      "Ġinside": 6529,
      "^^^^": 6530,
      "Ġho": 6531,
      ";/": 6532,
      "Private": 6533,
      "Ġmaster": 6534,
      "Edge": 6535,
      "Ne": 6536,
      "Theme": 6537,
      "Now": 6538,
      "bi": 6539,
      "Generated": 6540,
      "ãĥĥ": 6541,
      "ORS": 6542,
      "feed": 6543,
      "ATCH": 6544,
      "TAG": 6545,
      "Ġbig": 6546,
      "TRIB": 6547,
      "èĢħ": 6548,
      "Ġ----------------------------------------------------------------": 6549,
      "čĊĠĠĠĠĠĠ": 6550,
      "Ġprogress": 6551,
      "TC": 6552,
      "assertTrue": 6553,
      "Batch": 6554,
      "ĠSession": 6555,
      "Append": 6556,
      "}\",": 6557,
      "Ġcome": 6558,
      "Enter": 6559,
      "Ġbel": 6560,
      "transaction": 6561,
      "Throw": 6562,
      "Ġremoved": 6563,
      "Ġremote": 6564,
      "tm": 6565,
      "ĠGlobal": 6566,
      "\"].": 6567,
      "XFF": 6568,
      "Prop": 6569,
      "dm": 6570,
      "rank": 6571,
      "enabled": 6572,
      ":/": 6573,
      "Ġwho": 6574,
      "Ġbasic": 6575,
      "allen": 6576,
      "Ġlabels": 6577,
      "Please": 6578,
      "ĠBlock": 6579,
      "TRY": 6580,
      "SCRIP": 6581,
      "ĠSpec": 6582,
      "green": 6583,
      "highlight": 6584,
      "åĵ": 6585,
      "]->": 6586,
      "INST": 6587,
      "IX": 6588,
      "Ġreceived": 6589,
      "Fore": 6590,
      "Ġlwjgl": 6591,
      "Ġpixel": 6592,
      "Ġ|=": 6593,
      "fast": 6594,
      "watch": 6595,
      "Ġexternal": 6596,
      "Book": 6597,
      "Ã¥": 6598,
      "ato": 6599,
      "Ġextract": 6600,
      "Enable": 6601,
      "delta": 6602,
      "Ġcb": 6603,
      "Ġtrigger": 6604,
      "ãģª": 6605,
      "branch": 6606,
      "structions": 6607,
      "ĠGoogle": 6608,
      "Information": 6609,
      "Ġnumpy": 6610,
      "company": 6611,
      "rect": 6612,
      "MC": 6613,
      "Animation": 6614,
      "uuid": 6615,
      "èİ": 6616,
      "ĠSelf": 6617,
      "åĲĮ": 6618,
      "setText": 6619,
      "WI": 6620,
      "Ġenter": 6621,
      "olved": 6622,
      "Ġlatest": 6623,
      "Äį": 6624,
      "Ġ'%": 6625,
      "=-": 6626,
      "ulk": 6627,
      "efficient": 6628,
      "ĠSelect": 6629,
      "Ġoptim": 6630,
      "sem": 6631,
      "chan": 6632,
      "Year": 6633,
      "illi": 6634,
      "eval": 6635,
      "ĊĠĠĠĠĠĠĠĠĠĠĠĠĠĠĠĠĠĠĠĠĠĠĠĠĠĠĠĠĠĠĠĠĠ": 6636,
      "ongo": 6637,
      "ĠLanguage": 6638,
      "ÂłÂł": 6639,
      "æĹ¥": 6640,
      "Driver": 6641,
      "]*": 6642,
      "Ġfig": 6643,
      "ĠÂ": 6644,
      "Ġsequence": 6645,
      "tech": 6646,
      "čĊĠĠĠĠĠĠĠĠĠĠĠĠĠĠĠĠĠĠĠĠĠĠĠĠĠĠĠ": 6647,
      "ationship": 6648,
      "Nav": 6649,
      "()`": 6650,
      "Syntax": 6651,
      "ĠOS": 6652,
      "Ġ\"@": 6653,
      "Spr": 6654,
      "usion": 6655,
      "pragma": 6656,
      "zy": 6657,
      "Ġwritten": 6658,
      "apse": 6659,
      "pret": 6660,
      "Ġwrong": 6661,
      "ĠQuery": 6662,
      "Ġcontaining": 6663,
      "Ð¸ÑĤ": 6664,
      "ä»¬": 6665,
      "inu": 6666,
      "nc": 6667,
      "progress": 6668,
      "lers": 6669,
      "plt": 6670,
      "Ġallowed": 6671,
      "OFF": 6672,
      "rx": 6673,
      "ĠDateTime": 6674,
      "iet": 6675,
      "Ġmachine": 6676,
      "Ġbad": 6677,
      "ĠSte": 6678,
      "Allow": 6679,
      "Ġ{},": 6680,
      "simple": 6681,
      "Fix": 6682,
      "Ġfhir": 6683,
      "ifiers": 6684,
      "Make": 6685,
      "Ġpublish": 6686,
      "erc": 6687,
      "MIT": 6688,
      "ikariConfig": 6689,
      "]}": 6690,
      "Ġsteps": 6691,
      "jquery": 6692,
      "getValue": 6693,
      "Ġservices": 6694,
      "ĠPart": 6695,
      "SUCCESS": 6696,
      "ĠMain": 6697,
      "DELETE": 6698,
      "Objects": 6699,
      "ĠApplication": 6700,
      "Endpoint": 6701,
      "rieve": 6702,
      "datetime": 6703,
      "ste": 6704,
      "BC": 6705,
      "Tasks": 6706,
      "Ġcref": 6707,
      "](/": 6708,
      "loading": 6709,
      "ulate": 6710,
      "etc": 6711,
      "atalog": 6712,
      "History": 6713,
      "Ġhis": 6714,
      "Ġcor": 6715,
      "navbar": 6716,
      "Ġless": 6717,
      "ĠStr": 6718,
      "World": 6719,
      "gdat": 6720,
      "sess": 6721,
      "Ġ]);": 6722,
      "åĪĹ": 6723,
      "kg": 6724,
      "ador": 6725,
      "curs": 6726,
      "Ġregion": 6727,
      "ĠDatabase": 6728,
      "orth": 6729,
      "MOD": 6730,
      "avor": 6731,
      "alytics": 6732,
      "Ġinstalled": 6733,
      "Convert": 6734,
      "Ġsimilar": 6735,
      "Lower": 6736,
      "Ġextra": 6737,
      "Pub": 6738,
      "Tx": 6739,
      "Ã¼tsch": 6740,
      "Identity": 6741,
      "Rot": 6742,
      "čĊĠĠĠĠĠĠĠĠĠĠĠĠĠ": 6743,
      "DOT": 6744,
      "Insert": 6745,
      "'.$": 6746,
      "åĮĸ": 6747,
      "{$": 6748,
      "extension": 6749,
      "Ġactually": 6750,
      "-----": 6751,
      "å½ĵ": 6752,
      "Ġms": 6753,
      "guide": 6754,
      "ming": 6755,
      "gz": 6756,
      ">{{": 6757,
      "mine": 6758,
      "Ġdesign": 6759,
      "å»º": 6760,
      "ĠBE": 6761,
      "ĠASSERT": 6762,
      "Tags": 6763,
      "ĠInstall": 6764,
      "atis": 6765,
      "Ġedge": 6766,
      "Connect": 6767,
      "------": 6768,
      "leton": 6769,
      "REC": 6770,
      "Ġ\"+": 6771,
      "clo": 6772,
      "Holder": 6773,
      "Addr": 6774,
      "æ¨": 6775,
      "izable": 6776,
      "hw": 6777,
      "Zone": 6778,
      "ÄĻ": 6779,
      "Ġhome": 6780,
      "Ġcv": 6781,
      "trl": 6782,
      "ouch": 6783,
      "sect": 6784,
      "Ġyield": 6785,
      "Usage": 6786,
      "MBER": 6787,
      "ëĵ": 6788,
      "udit": 6789,
      "Power": 6790,
      "redit": 6791,
      "Div": 6792,
      "FileName": 6793,
      "éħį": 6794,
      "ĠHi": 6795,
      "atile": 6796,
      "EventListener": 6797,
      "ĠExec": 6798,
      "Scal": 6799,
      "Ġmb": 6800,
      "ĠIMP": 6801,
      "ĠDelete": 6802,
      "Clear": 6803,
      "Ġhard": 6804,
      "proc": 6805,
      "Volume": 6806,
      "BA": 6807,
      "Ġgoing": 6808,
      "NdEx": 6809,
      "Ġseconds": 6810,
      "~~~~~~~~": 6811,
      "Hand": 6812,
      "ĠĠĠĠĠĠĠĠĠĠĠĠĠĠĠĠĠĠĠĠĠĠĠ": 6813,
      "pointer": 6814,
      "illa": 6815,
      "|--": 6816,
      "éĥ": 6817,
      "Idx": 6818,
      "Ġcases": 6819,
      "{},": 6820,
      "cipe": 6821,
      "ĠSie": 6822,
      "Compat": 6823,
      "Ġ).": 6824,
      "Nullable": 6825,
      "inherit": 6826,
      "icks": 6827,
      "ĉĉĉĉĉĉĉĉ": 6828,
      "Ġmonth": 6829,
      "åħ³": 6830,
      "cheme": 6831,
      "å°Ĩ": 6832,
      "gp": 6833,
      "VO": 6834,
      "cart": 6835,
      "land": 6836,
      "ajax": 6837,
      "Ġbottom": 6838,
      "Packet": 6839,
      "ĠElement": 6840,
      "={{": 6841,
      "Ġscore": 6842,
      "Points": 6843,
      "lies": 6844,
      "('./": 6845,
      "lim": 6846,
      "flutter": 6847,
      "otlin": 6848,
      "ĠProcess": 6849,
      "ante": 6850,
      "Platform": 6851,
      "ÄĽ": 6852,
      "zon": 6853,
      "åľ°": 6854,
      "ĠGMT": 6855,
      "POSE": 6856,
      "Ġaround": 6857,
      "Ø±": 6858,
      "ĠLoad": 6859,
      "IOException": 6860,
      "TRIBUT": 6861,
      "Ġhidden": 6862,
      "Ð¾Ð¼": 6863,
      "ë¦": 6864,
      "posed": 6865,
      "Ġwidget": 6866,
      "amma": 6867,
      "ores": 6868,
      "Asset": 6869,
      "multi": 6870,
      "ifies": 6871,
      "Processor": 6872,
      "jar": 6873,
      "une": 6874,
      "ĠDA": 6875,
      "APP": 6876,
      "Ġpod": 6877,
      "tensor": 6878,
      "Ġdisabled": 6879,
      "Created": 6880,
      "Short": 6881,
      "sr": 6882,
      "Ġvolume": 6883,
      "éľĢ": 6884,
      "Ġbus": 6885,
      "Ġ,\"": 6886,
      "unknown": 6887,
      "FLAGS": 6888,
      "lan": 6889,
      "flat": 6890,
      "Character": 6891,
      "Ġpacket": 6892,
      "Real": 6893,
      "Ġengine": 6894,
      "ÙĨ": 6895,
      "vars": 6896,
      "Ġprovider": 6897,
      "Ġusage": 6898,
      "oh": 6899,
      "FS": 6900,
      "çİ°": 6901,
      "HEAD": 6902,
      "ÑĢÐ°Ð": 6903,
      "activity": 6904,
      "Ġactions": 6905,
      "UST": 6906,
      "Audio": 6907,
      "lyph": 6908,
      "IMP": 6909,
      "how": 6910,
      "Ġbuilt": 6911,
      "NC": 6912,
      "Ġcreating": 6913,
      "ysical": 6914,
      "navig": 6915,
      "Ins": 6916,
      "!=": 6917,
      "ĠSc": 6918,
      "Ġ\"../": 6919,
      "ĠSk": 6920,
      "Å¡": 6921,
      "Ġ{\\": 6922,
      "unded": 6923,
      "iles": 6924,
      "locale": 6925,
      "chor": 6926,
      "Ġwhy": 6927,
      "+'": 6928,
      "Ġvalidation": 6929,
      "Ġsets": 6930,
      "amaz": 6931,
      "ĠController": 6932,
      "Ġsuggest": 6933,
      "ĊĊĊĠĠĠĠĠĠĠ": 6934,
      "href": 6935,
      "Ġautomatically": 6936,
      "Ġpool": 6937,
      "ĠDouble": 6938,
      ">()": 6939,
      "Ġturn": 6940,
      "Mesh": 6941,
      "that": 6942,
      "cls": 6943,
      "ĠBY": 6944,
      "las": 6945,
      "èİ·": 6946,
      "Ġinstances": 6947,
      "\\'": 6948,
      "ades": 6949,
      "TABLE": 6950,
      "eax": 6951,
      "Ġdays": 6952,
      "embed": 6953,
      "origin": 6954,
      "ived": 6955,
      "ĠCreated": 6956,
      "\"])": 6957,
      "Binary": 6958,
      "Tri": 6959,
      "ä»£": 6960,
      "hex": 6961,
      "unto": 6962,
      "MASK": 6963,
      "NING": 6964,
      "æĽ´": 6965,
      "éĺ": 6966,
      "ÑĨ": 6967,
      "Ġisinstance": 6968,
      "eries": 6969,
      "verify": 6970,
      "writ": 6971,
      "Returns": 6972,
      "Ġmulti": 6973,
      "categories": 6974,
      "éĩı": 6975,
      "MES": 6976,
      "questions": 6977,
      "destroy": 6978,
      "æĮĩ": 6979,
      "Ġsig": 6980,
      "ables": 6981,
      "UDING": 6982,
      "duration": 6983,
      "<>();": 6984,
      "Ġinc": 6985,
      "lr": 6986,
      "scan": 6987,
      "Ġsymbol": 6988,
      "InputStream": 6989,
      "Ġallows": 6990,
      "<'": 6991,
      "TT": 6992,
      "ĊĉĉĠĠĠ": 6993,
      "ĠGNU": 6994,
      "lv": 6995,
      "Ð»Ð¸": 6996,
      "ĠÐ¼": 6997,
      "ĠAD": 6998,
      "Ġdirection": 6999,
      "ìĦľ": 7000,
      "GO": 7001,
      "ĠOUT": 7002,
      "Direct": 7003,
      "remote": 7004,
      "Rest": 7005,
      "Ġfeed": 7006,
      "cert": 7007,
      "Ġendpoint": 7008,
      "mu": 7009,
      "UCT": 7010,
      "(/": 7011,
      "ali": 7012,
      "Ġquestion": 7013,
      "pay": 7014,
      "enk": 7015,
      "aring": 7016,
      "ĠRegister": 7017,
      "precated": 7018,
      "Ġlos": 7019,
      "Ġeditor": 7020,
      "rules": 7021,
      "ĠÑĤ": 7022,
      "Free": 7023,
      "wr": 7024,
      "Ð½Ñĭ": 7025,
      "ido": 7026,
      "graphics": 7027,
      "compile": 7028,
      "symbol": 7029,
      "Ġprop": 7030,
      "Ġfew": 7031,
      "Ġrules": 7032,
      "cursor": 7033,
      "Cancel": 7034,
      "Ġcounter": 7035,
      "Ġplot": 7036,
      "Ġbits": 7037,
      "binary": 7038,
      "country": 7039,
      "Pixel": 7040,
      "*,": 7041,
      "éĽ": 7042,
      "here": 7043,
      "æłĩ": 7044,
      "Ġdirectly": 7045,
      "Strip": 7046,
      "more": 7047,
      "untu": 7048,
      "Ġpeople": 7049,
      "å§": 7050,
      "dy": 7051,
      "Permission": 7052,
      "Ġmaterial": 7053,
      "UTO": 7054,
      "Router": 7055,
      "Ġsender": 7056,
      "ĠonClick": 7057,
      "Ġversions": 7058,
      "),(": 7059,
      "lists": 7060,
      "black": 7061,
      "grpc": 7062,
      "ĠContext": 7063,
      "Ġev": 7064,
      "UBLE": 7065,
      "Score": 7066,
      "Center": 7067,
      "getId": 7068,
      "Validator": 7069,
      "Ġasset": 7070,
      "åĽ¾": 7071,
      "ĠGroup": 7072,
      "urch": 7073,
      "Capt": 7074,
      "Ġcod": 7075,
      "agger": 7076,
      "Loading": 7077,
      "Ġfuture": 7078,
      "mouse": 7079,
      "getString": 7080,
      "disabled": 7081,
      "Accept": 7082,
      "yml": 7083,
      "\\\";": 7084,
      "anit": 7085,
      "Ġsignal": 7086,
      "Ġsi": 7087,
      "Ġprotocol": 7088,
      "Execute": 7089,
      "ping": 7090,
      "ì§Ģ": 7091,
      "ĠEND": 7092,
      "Setting": 7093,
      "gon": 7094,
      "Ġrep": 7095,
      "Ip": 7096,
      "ĠFix": 7097,
      "vue": 7098,
      "ĠLocal": 7099,
      "issue": 7100,
      "supported": 7101,
      "ĠCar": 7102,
      "Ġeq": 7103,
      "Ġles": 7104,
      "Machine": 7105,
      "RED": 7106,
      "SUB": 7107,
      "Ġdynamic": 7108,
      "requency": 7109,
      "override": 7110,
      "reet": 7111,
      "Ġreplace": 7112,
      "Actions": 7113,
      "Basic": 7114,
      "ĠArgument": 7115,
      "AMP": 7116,
      "ĠCos": 7117,
      "ĠLine": 7118,
      "ArrayList": 7119,
      "ĠFoundation": 7120,
      "Shader": 7121,
      "ãĥĹ": 7122,
      "Ġmaximum": 7123,
      "heading": 7124,
      "Ġdst": 7125,
      "NESS": 7126,
      ":\\\"": 7127,
      ".\"\"\"": 7128,
      "Ġstored": 7129,
      "Ġskip": 7130,
      "LD": 7131,
      "ĠGets": 7132,
      "customer": 7133,
      "Chunk": 7134,
      "II": 7135,
      "good": 7136,
      "sin": 7137,
      "browser": 7138,
      "Camera": 7139,
      "Ġaut": 7140,
      "hook": 7141,
      "cook": 7142,
      "ĠMIT": 7143,
      "ĠRoute": 7144,
      "ĠLogger": 7145,
      "pf": 7146,
      "generator": 7147,
      "ĠUnit": 7148,
      "indexOf": 7149,
      "yes": 7150,
      "Operator": 7151,
      "Ġcharacters": 7152,
      "ê°Ģ": 7153,
      "dispatch": 7154,
      "GEN": 7155,
      "checked": 7156,
      "TS": 7157,
      "ĠBut": 7158,
      "Ġcapt": 7159,
      ";}": 7160,
      "sheet": 7161,
      "Ġnever": 7162,
      "Ġjoin": 7163,
      ".\")": 7164,
      "ÙĪ": 7165,
      "badge": 7166,
      "ULAR": 7167,
      ">=": 7168,
      "ĠSimple": 7169,
      "samples": 7170,
      "Shell": 7171,
      "IMIT": 7172,
      "Ġ\");": 7173,
      "Ġexact": 7174,
      "[:,": 7175,
      "ORK": 7176,
      "pin": 7177,
      "Ġadding": 7178,
      "Kit": 7179,
      "tb": 7180,
      "Ġdatetime": 7181,
      "ìĭ": 7182,
      "Ġpower": 7183,
      "Dispatch": 7184,
      "Ĥ¬": 7185,
      "Ignore": 7186,
      "Ġshared": 7187,
      "ĠErr": 7188,
      "locity": 7189,
      "Ġrequires": 7190,
      "ĠFrame": 7191,
      "design": 7192,
      "Dynamic": 7193,
      "âĢľ": 7194,
      "Ġ\"[": 7195,
      "cheduler": 7196,
      "Ġensure": 7197,
      "mesh": 7198,
      "mitive": 7199,
      "ving": 7200,
      "Ġgoto": 7201,
      "gov": 7202,
      "ĠGe": 7203,
      "amazon": 7204,
      "Dict": 7205,
      "uck": 7206,
      "Ġ###": 7207,
      "Ġqual": 7208,
      "éĥ¨": 7209,
      "Ġìł": 7210,
      "chunk": 7211,
      "UDE": 7212,
      "jet": 7213,
      "Install": 7214,
      "ulumi": 7215,
      "Ġ\";": 7216,
      "FIL": 7217,
      "cam": 7218,
      "shadow": 7219,
      "circle": 7220,
      "pd": 7221,
      "timer": 7222,
      "ĠĠĠĠĠĠĠĠĠĠĠĠĠĠĠĠĠĠĠĠĠ": 7223,
      "Ġ(-": 7224,
      "pat": 7225,
      "publish": 7226,
      "_);": 7227,
      "Ġremain": 7228,
      "ä¾ĭ": 7229,
      "Mov": 7230,
      "}}</": 7231,
      "DEX": 7232,
      "des": 7233,
      "ano": 7234,
      "ENV": 7235,
      "Å¼": 7236,
      "strip": 7237,
      "ULE": 7238,
      "endl": 7239,
      "idad": 7240,
      "direct": 7241,
      "prob": 7242,
      "ĠPo": 7243,
      "ĠÃł": 7244,
      "Ġlower": 7245,
      "TestCase": 7246,
      "Dto": 7247,
      "MEMBER": 7248,
      "available": 7249,
      "wa": 7250,
      "priv": 7251,
      "TRGL": 7252,
      "secret": 7253,
      "Ġtypename": 7254,
      "/#": 7255,
      "Ġvarchar": 7256,
      "Ġproper": 7257,
      "Ã¼r": 7258,
      "volume": 7259,
      "-------": 7260,
      "uent": 7261,
      "Ġidentifier": 7262,
      "Border": 7263,
      "Rows": 7264,
      "gmail": 7265,
      "Resolver": 7266,
      "keywords": 7267,
      "Ã¶r": 7268,
      "Ġein": 7269,
      "URCE": 7270,
      "Serializer": 7271,
      "Ġcontact": 7272,
      "LC": 7273,
      "xF": 7274,
      "ATOR": 7275,
      "ĠEntity": 7276,
      "slide": 7277,
      "Ġdue": 7278,
      "Ġpolicy": 7279,
      ")',": 7280,
      "ombre": 7281,
      "Contains": 7282,
      "antic": 7283,
      "afe": 7284,
      "Ġlang": 7285,
      "AW": 7286,
      "ApplicationConfiguration": 7287,
      "Ċĉĉĉĉĉĉĉĉĉĉ": 7288,
      "concat": 7289,
      "toEqual": 7290,
      "ãģķ": 7291,
      "ĠUtil": 7292,
      "ulo": 7293,
      "Ġwriter": 7294,
      "ÐµÐ¼": 7295,
      "ategor": 7296,
      "MAGE": 7297,
      "ora": 7298,
      "ARTIC": 7299,
      "æĦ": 7300,
      "metric": 7301,
      "Ġ\"_": 7302,
      "deg": 7303,
      "tuple": 7304,
      "Ġhappen": 7305,
      "ILD": 7306,
      "Ġflow": 7307,
      ")+": 7308,
      "Site": 7309,
      "oney": 7310,
      "ĠÄ": 7311,
      "signal": 7312,
      "Some": 7313,
      "Ġ}),": 7314,
      "è§£": 7315,
      "abilities": 7316,
      "enario": 7317,
      "Remote": 7318,
      "åħ¶": 7319,
      "Scene": 7320,
      "Ġcontents": 7321,
      "zh": 7322,
      "keyword": 7323,
      "ĠRuntime": 7324,
      "Ġchunk": 7325,
      "Ġstarted": 7326,
      "projects": 7327,
      "itect": 7328,
      "Ġprev": 7329,
      "anti": 7330,
      "FOR": 7331,
      "icate": 7332,
      "å°ı": 7333,
      "Reset": 7334,
      "ki": 7335,
      "Ġdistance": 7336,
      "GIN": 7337,
      "Fact": 7338,
      "Groups": 7339,
      "'=>'": 7340,
      "aps": 7341,
      "parator": 7342,
      "Ġlinks": 7343,
      "ĠSecurity": 7344,
      "Ġsu": 7345,
      "Car": 7346,
      "agnostics": 7347,
      "Ġencoding": 7348,
      "most": 7349,
      "Ġ[{": 7350,
      "original": 7351,
      "ĠVar": 7352,
      "redirect": 7353,
      "Buf": 7354,
      "Snapshot": 7355,
      "Split": 7356,
      "ĠCore": 7357,
      "FALSE": 7358,
      "defer": 7359,
      "quote": 7360,
      "Ġunless": 7361,
      "Errors": 7362,
      "âĸĪâĸĪ": 7363,
      "except": 7364,
      "Ġtech": 7365,
      "direction": 7366,
      "Month": 7367,
      "'\"": 7368,
      "Ġbot": 7369,
      "uman": 7370,
      "Ġdig": 7371,
      "Lin": 7372,
      "Ġavoid": 7373,
      "constexpr": 7374,
      "Complete": 7375,
      "audio": 7376,
      "urnal": 7377,
      "plain": 7378,
      "ĠEng": 7379,
      "ĠCollection": 7380,
      "-(": 7381,
      "Ġpartial": 7382,
      "Ġdisable": 7383,
      "åģ": 7384,
      "erate": 7385,
      "thumb": 7386,
      "ãģ¦": 7387,
      "Ġprovides": 7388,
      "Ġ{:": 7389,
      "Ġclo": 7390,
      "Ġorigin": 7391,
      "Ġoperations": 7392,
      "START": 7393,
      "uplicate": 7394,
      "Ġinitialize": 7395,
      "Ġlearn": 7396,
      "ëĭĪëĭ¤": 7397,
      "Ġng": 7398,
      "Servlet": 7399,
      "big": 7400,
      "definition": 7401,
      "Ġnav": 7402,
      "ä½ł": 7403,
      "power": 7404,
      "Ġ}}\"": 7405,
      "ĠAbstract": 7406,
      "translate": 7407,
      "ĠXML": 7408,
      "ĠSerial": 7409,
      "Ġcalls": 7410,
      "La": 7411,
      "Ġbin": 7412,
      "ĠButton": 7413,
      "anging": 7414,
      "ç»Ħ": 7415,
      "Implement": 7416,
      "ĠURI": 7417,
      "AK": 7418,
      "ĠAss": 7419,
      "AIN": 7420,
      "VAR": 7421,
      "bn": 7422,
      "âĢĶ": 7423,
      "Cursor": 7424,
      "Ġforward": 7425,
      "EP": 7426,
      "rust": 7427,
      "CLASS": 7428,
      "Chain": 7429,
      "Ġ.=": 7430,
      "Ġowner": 7431,
      "getInstance": 7432,
      "Side": 7433,
      "`](": 7434,
      "Ġsit": 7435,
      "Ġsimp": 7436,
      "Ġmakes": 7437,
      "ĠSearch": 7438,
      "Alloc": 7439,
      "operation": 7440,
      "/'": 7441,
      "Visual": 7442,
      "ĠSign": 7443,
      "Shared": 7444,
      "Many": 7445,
      "pipe": 7446,
      "vey": 7447,
      "Ġvariant": 7448,
      "ĠGitHub": 7449,
      "placement": 7450,
      "aÃ§Ã£o": 7451,
      "_->": 7452,
      "dropdown": 7453,
      "istence": 7454,
      "ĠFALSE": 7455,
      "ĠLIMIT": 7456,
      "\">{{": 7457,
      "Ġcy": 7458,
      "Ġmedia": 7459,
      "Extensions": 7460,
      "Ġalpha": 7461,
      "Ġca": 7462,
      "ensity": 7463,
      "PM": 7464,
      "Phone": 7465,
      "Elements": 7466,
      "ĠOff": 7467,
      "Submit": 7468,
      "xffffffff": 7469,
      "Ġprimary": 7470,
      "ĠLIC": 7471,
      "Ġspecial": 7472,
      "*-": 7473,
      "IZ": 7474,
      ".)": 7475,
      "about": 7476,
      "Timestamp": 7477,
      "ä¹ĭ": 7478,
      "Ġduration": 7479,
      "Ġ??": 7480,
      "Big": 7481,
      "ĠMax": 7482,
      "effect": 7483,
      "cores": 7484,
      "ĠVec": 7485,
      "Ġseg": 7486,
      "Ġlow": 7487,
      "usic": 7488,
      "pan": 7489,
      "ĠMAX": 7490,
      "([]": 7491,
      "WriteLine": 7492,
      "NG": 7493,
      "agic": 7494,
      "steps": 7495,
      "See": 7496,
      "ĠPre": 7497,
      "upy": 7498,
      "ĠFind": 7499,
      "Ġbg": 7500,
      "Ġdialog": 7501,
      "ãģŁ": 7502,
      "Loop": 7503,
      "accept": 7504,
      "thers": 7505,
      "logging": 7506,
      "Ġdistribution": 7507,
      "Ġscroll": 7508,
      "ĠMock": 7509,
      "Ġlistener": 7510,
      "Download": 7511,
      "seed": 7512,
      "trigger": 7513,
      "continue": 7514,
      "ãĥ©": 7515,
      "COUNT": 7516,
      "ĠCurrent": 7517,
      "hicle": 7518,
      "Ġsuccessfully": 7519,
      "apps": 7520,
      "translation": 7521,
      "',$": 7522,
      "unwrap": 7523,
      "utable": 7524,
      "CUR": 7525,
      "hd": 7526,
      "Ġnecessary": 7527,
      "$.": 7528,
      "spot": 7529,
      "ooter": 7530,
      "ĠSin": 7531,
      "Ġdispatch": 7532,
      "Ġsaved": 7533,
      "amage": 7534,
      "ĠMin": 7535,
      "MAG": 7536,
      "abric": 7537,
      "ctions": 7538,
      "webkit": 7539,
      "ĠRowBox": 7540,
      "important": 7541,
      "ctrl": 7542,
      "sequence": 7543,
      "Exists": 7544,
      "INIT": 7545,
      "mysql": 7546,
      "pyx": 7547,
      "dark": 7548,
      "literal": 7549,
      "ç³": 7550,
      "åºı": 7551,
      "ĠStream": 7552,
      "sizeof": 7553,
      "åĮº": 7554,
      "pow": 7555,
      "Git": 7556,
      "DECL": 7557,
      "å¦Ĥæŀľ": 7558,
      "Ãµ": 7559,
      "Ġnumbers": 7560,
      "ĠMER": 7561,
      "lict": 7562,
      "forward": 7563,
      "High": 7564,
      "Ġnative": 7565,
      "crease": 7566,
      "============": 7567,
      "pn": 7568,
      "Inf": 7569,
      "ools": 7570,
      "Ġneg": 7571,
      "Ġnothing": 7572,
      "Ok": 7573,
      "Ð¹": 7574,
      "Optional": 7575,
      "Ġweight": 7576,
      "TX": 7577,
      "ootstrap": 7578,
      "è±": 7579,
      "Chat": 7580,
      "ĊĠĠĠĠĠĠĠĠĠĠĠĠĠĠĠĠĠĠĠĠĠĠĠĠĠĠĠĠĠĠĠĠĠĠĠĠĠĠĠĠĠĠĠĠĠĠĠĠĠĠĠĠĠĠĠ": 7581,
      "Ġplan": 7582,
      "Ġmo": 7583,
      "ç»ĵ": 7584,
      "/*!": 7585,
      "Pane": 7586,
      "iny": 7587,
      "ãĢĢãĢĢ": 7588,
      "Ġchart": 7589,
      "Aut": 7590,
      "interval": 7591,
      "Executor": 7592,
      "Ġdom": 7593,
      "ĠCloud": 7594,
      "writer": 7595,
      "æĸ¹æ³ķ": 7596,
      "Ġrect": 7597,
      "ĠIm": 7598,
      "Rep": 7599,
      "ĠBit": 7600,
      "ISION": 7601,
      "Weight": 7602,
      "LP": 7603,
      "UUID": 7604,
      "agraph": 7605,
      "Ġuna": 7606,
      "ĠBack": 7607,
      "PARAM": 7608,
      "tv": 7609,
      "PACK": 7610,
      ";;;;": 7611,
      "Ãº": 7612,
      "Ġimplemented": 7613,
      "Fn": 7614,
      "scene": 7615,
      "CHANT": 7616,
      "elem": 7617,
      "Ġanswer": 7618,
      "edu": 7619,
      "elements": 7620,
      "ĠLICENSE": 7621,
      "Ġpackages": 7622,
      "Ġwon": 7623,
      "ĠassertThat": 7624,
      "extra": 7625,
      "commands": 7626,
      "Ġstatement": 7627,
      "itions": 7628,
      "Ġupload": 7629,
      "Il": 7630,
      ")`": 7631,
      "KEN": 7632,
      "Columns": 7633,
      "Console": 7634,
      "erature": 7635,
      "Ġrc": 7636,
      "Ġ'_": 7637,
      "Ġbook": 7638,
      "Ġsay": 7639,
      "Req": 7640,
      "!/": 7641,
      "course": 7642,
      "twitter": 7643,
      "culate": 7644,
      "URPOSE": 7645,
      "Children": 7646,
      "upper": 7647,
      "WIN": 7648,
      "Ġhold": 7649,
      "Ġlarge": 7650,
      "Ġgive": 7651,
      "__,": 7652,
      "PIO": 7653,
      "LIB": 7654,
      "æ¨¡": 7655,
      "ky": 7656,
      "åĪ¶": 7657,
      "IFT": 7658,
      "Ġsync": 7659,
      "\"\\": 7660,
      "ĠGo": 7661,
      "PG": 7662,
      "ityEngine": 7663,
      "BD": 7664,
      "Ġcompute": 7665,
      "Ġreject": 7666,
      "ically": 7667,
      "æĪĸ": 7668,
      "Ġsecurity": 7669,
      "hello": 7670,
      "Ġproxy": 7671,
      "NV": 7672,
      "Ġpor": 7673,
      "describe": 7674,
      "METH": 7675,
      "Ġask": 7676,
      "Ġunderstand": 7677,
      "uses": 7678,
      "Ġforce": 7679,
      "nama": 7680,
      "expression": 7681,
      "speed": 7682,
      "viders": 7683,
      "Ġwire": 7684,
      "ãĥ«": 7685,
      "FFER": 7686,
      "Ġtrying": 7687,
      "()]": 7688,
      "enchmark": 7689,
      "rift": 7690,
      "Ġimpro": 7691,
      "Ġprice": 7692,
      "xfe": 7693,
      "Ġ}).": 7694,
      "ãģĵ": 7695,
      "links": 7696,
      "ĠProduct": 7697,
      "ĠChar": 7698,
      "thead": 7699,
      "ĠOrder": 7700,
      "Decimal": 7701,
      "peg": 7702,
      "mdi": 7703,
      "ĠĠĠĠĠĠĠĠĠĠĠĠĠĠĠĠĠĠĠĠĠĠ": 7704,
      "Expected": 7705,
      "Äĩ": 7706,
      "ĠMO": 7707,
      "lapack": 7708,
      "ĠBl": 7709,
      "Ġir": 7710,
      "atan": 7711,
      "Ġhaving": 7712,
      "Ġattemp": 7713,
      "Ġmp": 7714,
      "LY": 7715,
      "ĠModule": 7716,
      ")){": 7717,
      "ITNESS": 7718,
      "Segment": 7719,
      "çĻ": 7720,
      ">';": 7721,
      "bum": 7722,
      "ĊĠĠĠĠĠĠĠĠĠĠĠĠĠĠĠĠĠĠĠĠĠĠĠĠĠĠĠĠĠĠ": 7723,
      "getMessage": 7724,
      "Ġagent": 7725,
      "AE": 7726,
      "æıĲ": 7727,
      "Ve": 7728,
      "Arr": 7729,
      "ĠBuffer": 7730,
      "åŃĲ": 7731,
      "REE": 7732,
      "Ġlat": 7733,
      "LIN": 7734,
      "eration": 7735,
      "Ġdepth": 7736,
      ".*;": 7737,
      "(((": 7738,
      "Ġvisit": 7739,
      "Google": 7740,
      "asm": 7741,
      "dividual": 7742,
      "what": 7743,
      "ĠBUT": 7744,
      "ĠPARTIC": 7745,
      "indices": 7746,
      "ĠColumn": 7747,
      "Ġdocs": 7748,
      "[{\"": 7749,
      "frag": 7750,
      "Ġisn": 7751,
      "Ġloading": 7752,
      "focus": 7753,
      "esome": 7754,
      "Ġdelta": 7755,
      "Ġ\"\")": 7756,
      "Ġpol": 7757,
      "mult": 7758,
      "Alignment": 7759,
      "CHANTABILITY": 7760,
      "ĠJS": 7761,
      "Period": 7762,
      "ĠPURPOSE": 7763,
      "mobile": 7764,
      "Ġrate": 7765,
      "ĠBig": 7766,
      "Look": 7767,
      "goto": 7768,
      "Ġfactory": 7769,
      "figure": 7770,
      "subscribe": 7771,
      "IDTH": 7772,
      "éĩį": 7773,
      "miss": 7774,
      "))))": 7775,
      "Ġreceive": 7776,
      "aves": 7777,
      "coming": 7778,
      "ĠhikariConfig": 7779,
      "Ġwrapper": 7780,
      "ression": 7781,
      "Ġboard": 7782,
      "ĊĊĊĊĊĊĊĊ": 7783,
      "Fac": 7784,
      "oser": 7785,
      "Ġupdates": 7786,
      "aken": 7787,
      "Ġsn": 7788,
      "BER": 7789,
      "Signature": 7790,
      "osite": 7791,
      "dirname": 7792,
      "hyper": 7793,
      "ĠThen": 7794,
      "Secret": 7795,
      "mx": 7796,
      "ĠMark": 7797,
      "ĠTRUE": 7798,
      "ROOT": 7799,
      "codes": 7800,
      "slug": 7801,
      "Ġher": 7802,
      "ÅĽ": 7803,
      "à¦¾": 7804,
      "Ġlooks": 7805,
      "ĠThread": 7806,
      "pixel": 7807,
      "torch": 7808,
      "apis": 7809,
      "Dom": 7810,
      "Virtual": 7811,
      "å½ķ": 7812,
      "]=": 7813,
      "configure": 7814,
      "quent": 7815,
      "Ġ\")": 7816,
      "ĊĉĠĠĠĠĠ": 7817,
      "Ġselection": 7818,
      "Quest": 7819,
      "Ġmath": 7820,
      "Ġprobably": 7821,
      "ĠControl": 7822,
      "URN": 7823,
      "failed": 7824,
      "ssue": 7825,
      "Ġdelay": 7826,
      "ĠEnum": 7827,
      "rypto": 7828,
      "´ë": 7829,
      "uss": 7830,
      "gres": 7831,
      "RGB": 7832,
      "Dat": 7833,
      "ĠFree": 7834,
      "danger": 7835,
      "remarks": 7836,
      "Ġfailure": 7837,
      "ä½į": 7838,
      "éĻ¤": 7839,
      "çĶ¨æĪ·": 7840,
      "`;": 7841,
      "<!": 7842,
      "Ġpatch": 7843,
      "ÑĪ": 7844,
      "invoke": 7845,
      "(%": 7846,
      "Upload": 7847,
      "ĠPARTICULAR": 7848,
      "Diff": 7849,
      "lems": 7850,
      "IA": 7851,
      "mid": 7852,
      "ä¿¡æģ¯": 7853,
      "Ġpaths": 7854,
      ">\";": 7855,
      "Face": 7856,
      "ye": 7857,
      "ĠProp": 7858,
      "ĠSP": 7859,
      "sleep": 7860,
      "ĠâĢľ": 7861,
      "Ġpages": 7862,
      "xxxx": 7863,
      ")-": 7864,
      "createElement": 7865,
      "ARD": 7866,
      "Arch": 7867,
      "ĠOther": 7868,
      "Atom": 7869,
      "dashboard": 7870,
      "EMP": 7871,
      "Ġinputs": 7872,
      "cnt": 7873,
      "Dictionary": 7874,
      "delay": 7875,
      "xC": 7876,
      "ĠGrid": 7877,
      "èİ·åıĸ": 7878,
      "'):": 7879,
      "Ġround": 7880,
      "gif": 7881,
      "Ġgetting": 7882,
      "Bottom": 7883,
      ";\"": 7884,
      "ASH": 7885,
      "Ġmanager": 7886,
      "backend": 7887,
      "Ã¨": 7888,
      "Gui": 7889,
      "shell": 7890,
      "Ġloss": 7891,
      "Alias": 7892,
      "based": 7893,
      "ĠReg": 7894,
      "news": 7895,
      "Ġcost": 7896,
      "icular": 7897,
      "dbc": 7898,
      "eno": 7899,
      "Ġui": 7900,
      "ulator": 7901,
      "ĠERROR": 7902,
      "Trigger": 7903,
      "Fill": 7904,
      "Ġclone": 7905,
      "ipping": 7906,
      "identifier": 7907,
      "cdn": 7908,
      "checkbox": 7909,
      "alias": 7910,
      "ĠRef": 7911,
      "Ġmodules": 7912,
      "visible": 7913,
      "emit": 7914,
      "lots": 7915,
      "which": 7916,
      "Ġinterval": 7917,
      "members": 7918,
      "Ġperformance": 7919,
      "igen": 7920,
      "REQUEST": 7921,
      "Ġcollect": 7922,
      "sym": 7923,
      "Ġtraining": 7924,
      "LIED": 7925,
      "Tools": 7926,
      "regex": 7927,
      "Ġthing": 7928,
      "åĲ¦": 7929,
      "ctl": 7930,
      "Ġ\"--": 7931,
      "Plan": 7932,
      "ĠShow": 7933,
      "ĠMERCHANTABILITY": 7934,
      "Constructor": 7935,
      "Ġ![": 7936,
      "Commit": 7937,
      "æ¡": 7938,
      "Payload": 7939,
      "Switch": 7940,
      "ajor": 7941,
      "Collect": 7942,
      "_)": 7943,
      "examples": 7944,
      "Annotation": 7945,
      "compute": 7946,
      "ìľ": 7947,
      "Ð¾ÑĤ": 7948,
      "Ġperiod": 7949,
      "Customer": 7950,
      "Ġins": 7951,
      "graphy": 7952,
      "ç³»": 7953,
      "ternet": 7954,
      "%\"": 7955,
      "payment": 7956,
      "ocation": 7957,
      "variant": 7958,
      "ĠLinux": 7959,
      "Ġtokens": 7960,
      "dw": 7961,
      "Styles": 7962,
      "ĠBuilder": 7963,
      "Pred": 7964,
      "ĠLay": 7965,
      "Failure": 7966,
      "ĠConst": 7967,
      "Activ": 7968,
      "Promise": 7969,
      "Encoding": 7970,
      "ĠHandle": 7971,
      "Tensor": 7972,
      "Ġinform": 7973,
      "Ġendif": 7974,
      "ĠCOP": 7975,
      "uv": 7976,
      "Schedule": 7977,
      "vendor": 7978,
      "Ġalong": 7979,
      "Runner": 7980,
      "isting": 7981,
      "ko": 7982,
      "Head": 7983,
      "Ġabsolute": 7984,
      "andidate": 7985,
      "alog": 7986,
      "-----------": 7987,
      "@@": 7988,
      "ê²": 7989,
      "rib": 7990,
      "arison": 7991,
      "Ġpanel": 7992,
      "ìļ©": 7993,
      "mal": 7994,
      "yper": 7995,
      "anded": 7996,
      "urther": 7997,
      "ĠAuto": 7998,
      "Ð»Ñı": 7999,
      "xref": 8000,
      "endpoint": 8001,
      "gers": 8002,
      "Ġanything": 8003,
      "Ð½Ð¾": 8004,
      "norm": 8005,
      "integr": 8006,
      "braries": 8007,
      "aits": 8008,
      "Mac": 8009,
      "æŁ¥": 8010,
      "è¿Ķ": 8011,
      "Ġmatches": 8012,
      "Delegate": 8013,
      "havi": 8014,
      "actual": 8015,
      "...)": 8016,
      "into": 8017,
      "vanced": 8018,
      "pped": 8019,
      "LATE": 8020,
      "//!": 8021,
      "Ġreproduce": 8022,
      "Ġmapping": 8023,
      "Ġexplicit": 8024,
      "caption": 8025,
      "asy": 8026,
      "ires": 8027,
      "ght": 8028,
      "irt": 8029,
      "exe": 8030,
      "ĠÐ·": 8031,
      "Ġitself": 8032,
      "asi": 8033,
      "Angle": 8034,
      "avis": 8035,
      "Depth": 8036,
      "mes": 8037,
      "Classes": 8038,
      "ĠRequire": 8039,
      "fol": 8040,
      "MSG": 8041,
      ":{": 8042,
      "Fatal": 8043,
      "Ġbro": 8044,
      "Zero": 8045,
      "canvas": 8046,
      "plor": 8047,
      "Contents": 8048,
      "ĠByte": 8049,
      "ĠÎ": 8050,
      "roadcast": 8051,
      "Ġgreat": 8052,
      "refs": 8053,
      "radio": 8054,
      "FN": 8055,
      "Ã½": 8056,
      "bt": 8057,
      "Ġthree": 8058,
      "ĠOp": 8059,
      "ĊĊĠĠĠĠ": 8060,
      "Ġdestination": 8061,
      "EVENT": 8062,
      "éĢī": 8063,
      "cost": 8064,
      "ĠApi": 8065,
      "ĠNe": 8066,
      "}},": 8067,
      "Ġfi": 8068,
      "distance": 8069,
      "åĽ½": 8070,
      "ìĬ¤": 8071,
      "Ġentries": 8072,
      "Ġ):": 8073,
      "Ġstarting": 8074,
      "è±¡": 8075,
      "ÛĮ": 8076,
      "Worker": 8077,
      "Ġdot": 8078,
      "Tile": 8079,
      "ĠThat": 8080,
      "å¾Ĺ": 8081,
      "istr": 8082,
      "ĠInvalid": 8083,
      "mbed": 8084,
      "nail": 8085,
      "ĠPOST": 8086,
      "strument": 8087,
      "currency": 8088,
      "contents": 8089,
      "mr": 8090,
      "formance": 8091,
      "éľĢè¦ģ": 8092,
      "ĠDebug": 8093,
      "XY": 8094,
      "Strategy": 8095,
      "ãĤ¢": 8096,
      "($_": 8097,
      "ĠGu": 8098,
      "SERVER": 8099,
      "Ġconstant": 8100,
      "Push": 8101,
      "ĠGr": 8102,
      "Btn": 8103,
      "Alert": 8104,
      "Focus": 8105,
      "Ġdetermin": 8106,
      "ĠAndroid": 8107,
      "Ġgeneral": 8108,
      "Standard": 8109,
      "ĠLi": 8110,
      "Summary": 8111,
      "ittle": 8112,
      "metrics": 8113,
      "ĠFITNESS": 8114,
      "Ġspan": 8115,
      "repeat": 8116,
      "ĠAM": 8117,
      "andbox": 8118,
      "ĠĠĊĉ": 8119,
      "Ġbucket": 8120,
      "Exit": 8121,
      "Compiler": 8122,
      "ĠUINT": 8123,
      "Ã©s": 8124,
      "å¹¶": 8125,
      "ĠCOPY": 8126,
      "æľį": 8127,
      "scripts": 8128,
      "setting": 8129,
      "Where": 8130,
      "è°ĥ": 8131,
      "Ġdoing": 8132,
      "Ġdeleted": 8133,
      "AVE": 8134,
      "Ġseparate": 8135,
      "ARGET": 8136,
      "afka": 8137,
      "å¹´": 8138,
      "GRO": 8139,
      "stringify": 8140,
      "neg": 8141,
      "Own": 8142,
      "Ġlogic": 8143,
      "::$": 8144,
      "ĠConvert": 8145,
      "Ġchecked": 8146,
      "syntax": 8147,
      "gdx": 8148,
      "ĠConfiguration": 8149,
      "***": 8150,
      "inputs": 8151,
      "since": 8152,
      "ATED": 8153,
      "}'": 8154,
      "DP": 8155,
      "hot": 8156,
      "presentation": 8157,
      "cancel": 8158,
      "iece": 8159,
      "Ġfast": 8160,
      "ais": 8161,
      "seg": 8162,
      "Ġfails": 8163,
      "Authentication": 8164,
      "ech": 8165,
      "channels": 8166,
      "Ġ$.": 8167,
      "vg": 8168,
      "Ä±n": 8169,
      "*(": 8170,
      "ulture": 8171,
      "Ġhistory": 8172,
      "]^": 8173,
      "PHP": 8174,
      "xB": 8175,
      "Components": 8176,
      "reater": 8177,
      "\\.": 8178,
      "ï¿": 8179,
      "Ġuintptr": 8180,
      "/?": 8181,
      "ĠFloat": 8182,
      "Self": 8183,
      "Ġgrad": 8184,
      "learn": 8185,
      "Speed": 8186,
      "ĠNetwork": 8187,
      "åĬŁ": 8188,
      "ç©": 8189,
      "Ġwords": 8190,
      "ä¸»": 8191,
      "SOURCE": 8192,
      "CMD": 8193,
      "ĠAg": 8194,
      "refresh": 8195,
      "Ġut": 8196,
      "isto": 8197,
      "abc": 8198,
      "yl": 8199,
      "mn": 8200,
      "ffers": 8201,
      "bine": 8202,
      "Ġul": 8203,
      "What": 8204,
      "registry": 8205,
      "Bag": 8206,
      "incipal": 8207,
      "hold": 8208,
      "Ġagainst": 8209,
      "ERN": 8210,
      "Ãµes": 8211,
      "ĊĉĉĉĊĉĉ": 8212,
      "Ġnamed": 8213,
      "Ġsignature": 8214,
      "CV": 8215,
      "Literal": 8216,
      "'][": 8217,
      "æ¬¡": 8218,
      "Ġuri": 8219,
      "Ġprocessing": 8220,
      "Delay": 8221,
      "maps": 8222,
      "Fixed": 8223,
      "Ġtw": 8224,
      "æľº": 8225,
      "Ġembed": 8226,
      "ĠThese": 8227,
      "posts": 8228,
      "ĠRP": 8229,
      "Ġdevelopment": 8230,
      "Ġweek": 8231,
      "stderr": 8232,
      "Ġlot": 8233,
      "acer": 8234,
      "Ġ$\\": 8235,
      "awt": 8236,
      "bat": 8237,
      "__)": 8238,
      "once": 8239,
      "Ġfit": 8240,
      "Illuminate": 8241,
      "ÐµÐ´": 8242,
      "monitor": 8243,
      "ê¸°": 8244,
      "Ġmoment": 8245,
      "Ġspeed": 8246,
      "ordered": 8247,
      "declare": 8248,
      "Team": 8249,
      "ACC": 8250,
      "Ø§Ø": 8251,
      "Ġcross": 8252,
      "Ġvisual": 8253,
      "ĠĠĠĠĠĠĠĠĠĠĠĠĠĠĠĠĠĠĠĠĠĠĠĠ": 8254,
      "tasks": 8255,
      "Deploy": 8256,
      "Ġ>>>": 8257,
      "extend": 8258,
      "functions": 8259,
      "Ġcancel": 8260,
      "çķ": 8261,
      "Ġcompat": 8262,
      "HashMap": 8263,
      "æĶ¹": 8264,
      "isk": 8265,
      "Ġtrace": 8266,
      "................": 8267,
      "ä¹Ł": 8268,
      "Ġchain": 8269,
      "åı·": 8270,
      "Future": 8271,
      "sender": 8272,
      "Subject": 8273,
      "Ġalgorithm": 8274,
      "ĠAccess": 8275,
      "How": 8276,
      "éĹ®": 8277,
      "cesses": 8278,
      "TRAN": 8279,
      "Ġpermit": 8280,
      "badlogic": 8281,
      "ainers": 8282,
      "]{": 8283,
      "ä»ĸ": 8284,
      "Ġtasks": 8285,
      "rgb": 8286,
      "Ġinner": 8287,
      "texture": 8288,
      "Ġquick": 8289,
      "hu": 8290,
      "built": 8291,
      "MAKE": 8292,
      "Bounds": 8293,
      "Ġcalling": 8294,
      "two": 8295,
      "Ġvan": 8296,
      "Ġmaint": 8297,
      "---------": 8298,
      "visit": 8299,
      "æ±Ĥ": 8300,
      "ĠFilter": 8301,
      "Hello": 8302,
      "Ġrecent": 8303,
      "Topic": 8304,
      "Try": 8305,
      "arguments": 8306,
      "Ġíķ": 8307,
      "Ġche": 8308,
      "ĠACTION": 8309,
      "logs": 8310,
      ".|": 8311,
      "Ġfinally": 8312,
      "MESS": 8313,
      "](./": 8314,
      "mployee": 8315,
      "sop": 8316,
      "ENCE": 8317,
      "Ġtip": 8318,
      "ArgumentException": 8319,
      "extract": 8320,
      "ording": 8321,
      "Ġexamples": 8322,
      "general": 8323,
      "There": 8324,
      "AtA": 8325,
      "cols": 8326,
      "eclipse": 8327,
      "èĬ": 8328,
      "ĠHashMap": 8329,
      "å§ĭ": 8330,
      "Ð¾Ð³": 8331,
      "Ġpi": 8332,
      "Serialization": 8333,
      "é¢ĺ": 8334,
      "MEM": 8335,
      "decor": 8336,
      "Sheet": 8337,
      "Press": 8338,
      "pic": 8339,
      "Ġcompile": 8340,
      "ationToken": 8341,
      "ĠThrow": 8342,
      "Cpp": 8343,
      "tile": 8344,
      "ley": 8345,
      "ders": 8346,
      "Rec": 8347,
      "ĠIter": 8348,
      "concurrent": 8349,
      "Ġpick": 8350,
      "POS": 8351,
      "Ġãĥ": 8352,
      "agram": 8353,
      "Instances": 8354,
      "deep": 8355,
      "rpc": 8356,
      "ĠMet": 8357,
      "Ġroom": 8358,
      "Feed": 8359,
      "strings": 8360,
      "Ġsyntax": 8361,
      "NAMES": 8362,
      "Ġts": 8363,
      "æĻ": 8364,
      "otes": 8365,
      "Ġtra": 8366,
      "layers": 8367,
      "webpack": 8368,
      "ĠMar": 8369,
      "bundle": 8370,
      "Review": 8371,
      "gal": 8372,
      "Ġupper": 8373,
      "Ġgroups": 8374,
      "à¦°": 8375,
      "Ġframework": 8376,
      "ĠParameters": 8377,
      "Python": 8378,
      "Poly": 8379,
      "Ġ!!": 8380,
      "commons": 8381,
      "æĹ¶éĹ´": 8382,
      "jsp": 8383,
      "tty": 8384,
      "aN": 8385,
      "å·¥": 8386,
      "nl": 8387,
      "Ġfire": 8388,
      "Ñī": 8389,
      "setState": 8390,
      "Ġsec": 8391,
      "External": 8392,
      "æ³¨": 8393,
      "Other": 8394,
      "UX": 8395,
      "cape": 8396,
      "uel": 8397,
      "mv": 8398,
      "Radius": 8399,
      "])^": 8400,
      "Pipeline": 8401,
      "selection": 8402,
      "bp": 8403,
      "ought": 8404,
      "ê³ł": 8405,
      "icture": 8406,
      "Ġfine": 8407,
      "Ġwhite": 8408,
      "Ġsever": 8409,
      "ued": 8410,
      "optim": 8411,
      "Cons": 8412,
      "Pers": 8413,
      "enkins": 8414,
      "PRESS": 8415,
      "marshal": 8416,
      "Ġptr": 8417,
      "VC": 8418,
      "igrations": 8419,
      "çĽ¸": 8420,
      "Bad": 8421,
      "Ġpat": 8422,
      "Room": 8423,
      "ements": 8424,
      "å¸¸": 8425,
      "Ġbir": 8426,
      "atory": 8427,
      "bas": 8428,
      "student": 8429,
      "udy": 8430,
      "CLC": 8431,
      "StackTrace": 8432,
      "tokens": 8433,
      "Align": 8434,
      "åħ¨": 8435,
      "park": 8436,
      "products": 8437,
      "conditions": 8438,
      "Ġthough": 8439,
      "gray": 8440,
      "linear": 8441,
      "Ġfront": 8442,
      "aste": 8443,
      "iver": 8444,
      "Ġparticular": 8445,
      "Ġcourse": 8446,
      "Board": 8447,
      "ï¿½": 8448,
      "ĠPort": 8449,
      "Ġparsed": 8450,
      "reply": 8451,
      "HOME": 8452,
      "warn": 8453,
      "ĠEVENT": 8454,
      "BUFFER": 8455,
      "GP": 8456,
      "MAC": 8457,
      "Ġdependency": 8458,
      "Ġsegment": 8459,
      "Ġë°": 8460,
      "mutex": 8461,
      "CLI": 8462,
      "çľĭ": 8463,
      "IDE": 8464,
      "Ġfact": 8465,
      "Ġmouse": 8466,
      "ĠIMPLIED": 8467,
      "Ġcomments": 8468,
      "OBJECT": 8469,
      "Distance": 8470,
      "Ġcfg": 8471,
      "gui": 8472,
      "Ġenough": 8473,
      "Authorization": 8474,
      "Ġcorresponding": 8475,
      "NONE": 8476,
      "')}}": 8477,
      "ClassName": 8478,
      "*.": 8479,
      "Ġtopic": 8480,
      "series": 8481,
      "Win": 8482,
      "HOST": 8483,
      "Ġcontract": 8484,
      ")):": 8485,
      "//----------------------------------------------------------------": 8486,
      "Ġcorrectly": 8487,
      "Dev": 8488,
      "Linq": 8489,
      "IZE": 8490,
      "Ġcharset": 8491,
      "={\"": 8492,
      "ĠLIMITED": 8493,
      "nx": 8494,
      "cla": 8495,
      "Ġconfigure": 8496,
      "anted": 8497,
      "äºĭ": 8498,
      "period": 8499,
      "Ġ'$": 8500,
      "paths": 8501,
      "Controllers": 8502,
      "ampler": 8503,
      "rw": 8504,
      "under": 8505,
      "ĊĠĠĠĠĠĠĠĠĠĠĠĠĠĠĠĠĠĠĠĠĠĠĠĠĠĠĠĠĠĠĠĠĠĠĠĠĠ": 8506,
      "Ġnn": 8507,
      "ĠPHP": 8508,
      "men": 8509,
      "Ġvm": 8510,
      "aaaa": 8511,
      "é»": 8512,
      "/_": 8513,
      "elcome": 8514,
      "utdown": 8515,
      "åĮħ": 8516,
      "oi": 8517,
      "Include": 8518,
      "Ġendl": 8519,
      "UBLIC": 8520,
      "Canvas": 8521,
      "Ġ?></": 8522,
      "Ġpot": 8523,
      "Graphics": 8524,
      "Same": 8525,
      "mos": 8526,
      "]).": 8527,
      "æĪĳä»¬": 8528,
      "resize": 8529,
      "hub": 8530,
      "}\")": 8531,
      "Ġdjango": 8532,
      "Threading": 8533,
      "iones": 8534,
      "Ġist": 8535,
      "Ġprojects": 8536,
      "è®¾ç½®": 8537,
      "Monitor": 8538,
      "FAIL": 8539,
      "compat": 8540,
      "ages": 8541,
      "Ġìķ": 8542,
      "forms": 8543,
      "geo": 8544,
      "Ġconfigur": 8545,
      "coin": 8546,
      "ĠDisplay": 8547,
      "čč": 8548,
      "tooltip": 8549,
      "æŃ¤": 8550,
      "Ġconstruct": 8551,
      "identity": 8552,
      "ĠOne": 8553,
      "aign": 8554,
      "Ġsz": 8555,
      "RET": 8556,
      "Completed": 8557,
      "ĠVM": 8558,
      "Ġrecomm": 8559,
      "Arguments": 8560,
      "ÙĬ": 8561,
      "poly": 8562,
      "Ġvs": 8563,
      "Src": 8564,
      "onto": 8565,
      "ĠPower": 8566,
      "cryption": 8567,
      "RESS": 8568,
      "Ġkw": 8569,
      "INCLUDE": 8570,
      "Ġ-*-": 8571,
      "Ġgets": 8572,
      "ĠSend": 8573,
      "ansparent": 8574,
      "heel": 8575,
      "eners": 8576,
      "()[": 8577,
      "ĠRel": 8578,
      "Ġatom": 8579,
      "Transfer": 8580,
      "marker": 8581,
      "lette": 8582,
      "unce": 8583,
      "ä½ĵ": 8584,
      "Ġ#{": 8585,
      "ĠĊĠĠĠĠĠ": 8586,
      "Ġ(((": 8587,
      "tex": 8588,
      "ills": 8589,
      "Available": 8590,
      "Ġ----------------": 8591,
      "ads": 8592,
      "ADDR": 8593,
      "Enumerable": 8594,
      "ARR": 8595,
      "Management": 8596,
      "blocks": 8597,
      "schedule": 8598,
      "bold": 8599,
      "DX": 8600,
      "TRACT": 8601,
      "cision": 8602,
      "pod": 8603,
      "levant": 8604,
      "éĥ½": 8605,
      "Describe": 8606,
      "çĦ": 8607,
      "ĠFeature": 8608,
      "priate": 8609,
      "Mail": 8610,
      "tbl": 8611,
      "ulp": 8612,
      "Ġpipeline": 8613,
      "INVALID": 8614,
      "prod": 8615,
      "Ġjustify": 8616,
      "Ġzip": 8617,
      "brew": 8618,
      "Ġincludes": 8619,
      "nel": 8620,
      "sWith": 8621,
      "DataSource": 8622,
      "notations": 8623,
      "wards": 8624,
      "Two": 8625,
      "æĺİ": 8626,
      "*^": 8627,
      "ised": 8628,
      "ien": 8629,
      "Ġcamera": 8630,
      "Merge": 8631,
      "ridge": 8632,
      "General": 8633,
      "Ġtensor": 8634,
      "Ġsorted": 8635,
      "Ġcrate": 8636,
      "ively": 8637,
      "ÐµÐ»": 8638,
      "pred": 8639,
      "rp": 8640,
      "developer": 8641,
      "Ġshare": 8642,
      "Payment": 8643,
      "bet": 8644,
      "Ġguide": 8645,
      "collapse": 8646,
      "ĠÐ±": 8647,
      "Structure": 8648,
      "Ġfil": 8649,
      "elastic": 8650,
      "mous": 8651,
      "Ġstats": 8652,
      "fixed": 8653,
      "minecraft": 8654,
      "Username": 8655,
      "']))": 8656,
      "encoding": 8657,
      "InstanceOf": 8658,
      "[{": 8659,
      "kubernetes": 8660,
      "ymbols": 8661,
      "artifact": 8662,
      "ĠParse": 8663,
      "Ġdeal": 8664,
      "Ġintro": 8665,
      "gregate": 8666,
      "Ġcomplex": 8667,
      "allery": 8668,
      "|(": 8669,
      "Ġmk": 8670,
      "ĠĊĉĉ": 8671,
      "ĠSize": 8672,
      "apon": 8673,
      "ĠFrom": 8674,
      "Ġunknown": 8675,
      "Med": 8676,
      "=\"../../../../": 8677,
      "COM": 8678,
      "eff": 8679,
      "Ġcloud": 8680,
      "Ġmetrics": 8681,
      "Ġconfirm": 8682,
      "ering": 8683,
      "Fetch": 8684,
      "Ġcopies": 8685,
      "className": 8686,
      "adoop": 8687,
      "ĠAlso": 8688,
      "#####": 8689,
      "Lines": 8690,
      "ë¦¬": 8691,
      "brid": 8692,
      "preview": 8693,
      "distribut": 8694,
      "FX": 8695,
      "constant": 8696,
      "onymous": 8697,
      "dv": 8698,
      "Ġtools": 8699,
      "Pay": 8700,
      "StatusCode": 8701,
      "isp": 8702,
      "uer": 8703,
      "comments": 8704,
      "fony": 8705,
      "machine": 8706,
      "\\)</": 8707,
      "moz": 8708,
      "Ġaff": 8709,
      "è¢": 8710,
      "Ġ`${": 8711,
      "Ġaddr": 8712,
      "æ°": 8713,
      "Cor": 8714,
      "ENTRY": 8715,
      "Ġvisible": 8716,
      "Ġseq": 8717,
      "Seq": 8718,
      "ITH": 8719,
      "Ã¡s": 8720,
      "Sprintf": 8721,
      "Labels": 8722,
      "DTO": 8723,
      "substring": 8724,
      "EventArgs": 8725,
      "BF": 8726,
      "fold": 8727,
      "Marshal": 8728,
      "WORK": 8729,
      "adapter": 8730,
      "Ġrotate": 8731,
      "å®¹": 8732,
      "éķ": 8733,
      "ixin": 8734,
      "segment": 8735,
      "sktop": 8736,
      "Invoke": 8737,
      "Bits": 8738,
      "inx": 8739,
      "Ġparts": 8740,
      "mq": 8741,
      "Anim": 8742,
      "shield": 8743,
      "spaces": 8744,
      "Ġmd": 8745,
      "ĠWH": 8746,
      "appro": 8747,
      "Formatter": 8748,
      "ĠExt": 8749,
      "sqrt": 8750,
      "à´": 8751,
      "ĠCLASS": 8752,
      "elli": 8753,
      "CHAN": 8754,
      "ACTION": 8755,
      "Ġtakes": 8756,
      "oring": 8757,
      "#!/": 8758,
      "Ġjo": 8759,
      "UPDATE": 8760,
      "ĠActive": 8761,
      "ĠCommon": 8762,
      "è¿ĶåĽŀ": 8763,
      "Ġtimer": 8764,
      "Ġns": 8765,
      "\"];": 8766,
      "Ġutils": 8767,
      "Ġready": 8768,
      "ãģ¾ãģĻ": 8769,
      "Intent": 8770,
      "ENC": 8771,
      "your": 8772,
      "čĊĉčĊ": 8773,
      "[![": 8774,
      "ampaign": 8775,
      "packet": 8776,
      "Ġinitialized": 8777,
      "ducer": 8778,
      "Ġidea": 8779,
      "Arc": 8780,
      "vk": 8781,
      "à¸²": 8782,
      "OutputStream": 8783,
      "Ġmaybe": 8784,
      "NI": 8785,
      "ĠHowever": 8786,
      "ĠSDK": 8787,
      "Ġsynchron": 8788,
      "helpers": 8789,
      "Sn": 8790,
      "Ġclosed": 8791,
      "////////////////////////////////////////////////////////////////": 8792,
      "Ġtranslate": 8793,
      "hx": 8794,
      "Ġgithub": 8795,
      "initialize": 8796,
      "usage": 8797,
      "ĠCHAR": 8798,
      "have": 8799,
      "Ġactivity": 8800,
      "Master": 8801,
      "ida": 8802,
      "colors": 8803,
      "Ġsem": 8804,
      "Encoder": 8805,
      "Refer": 8806,
      "Ġeasy": 8807,
      "orry": 8808,
      "BACK": 8809,
      ":#": 8810,
      "Ġdimension": 8811,
      "æº": 8812,
      "same": 8813,
      "Surface": 8814,
      "perience": 8815,
      "Ġalias": 8816,
      "pick": 8817,
      "Scan": 8818,
      "ç®¡": 8819,
      "ĊĉĠĠĠĠĠĠĠ": 8820,
      "ĠStore": 8821,
      "lua": 8822,
      "VA": 8823,
      "ards": 8824,
      "æŃ£": 8825,
      "Ġangle": 8826,
      "ìĸ": 8827,
      "libs": 8828,
      "frac": 8829,
      "ĠCSS": 8830,
      "Ġlogs": 8831,
      "\\\":\\\"": 8832,
      "hat": 8833,
      "ierarch": 8834,
      "Ġrec": 8835,
      "Inject": 8836,
      "Ġdt": 8837,
      ">[": 8838,
      "annotations": 8839,
      "Ġ();": 8840,
      "è¯¥": 8841,
      "Qual": 8842,
      "ãĤĬ": 8843,
      "Ġrequested": 8844,
      "eting": 8845,
      "Ġhighlight": 8846,
      "rier": 8847,
      "Ġsummary": 8848,
      "ĠWITH": 8849,
      "yout": 8850,
      "Ġmodified": 8851,
      "Mo": 8852,
      "yt": 8853,
      "ĠFirst": 8854,
      "notification": 8855,
      "mul": 8856,
      "Ġtried": 8857,
      "yped": 8858,
      "éļ": 8859,
      "Ġlik": 8860,
      "Subscription": 8861,
      "ĠDOUBLE": 8862,
      "sur": 8863,
      "éĤ": 8864,
      "ained": 8865,
      "crypto": 8866,
      "Resp": 8867,
      "Ġ])": 8868,
      "DOM": 8869,
      "confirm": 8870,
      "Ġtuple": 8871,
      "lour": 8872,
      "Ġface": 8873,
      "Ġdeclare": 8874,
      "Pin": 8875,
      "HAND": 8876,
      "Detalle": 8877,
      "ĠCor": 8878,
      "ĠVisual": 8879,
      "è®¡": 8880,
      "mazon": 8881,
      "locfile": 8882,
      "AreEqual": 8883,
      ";\\": 8884,
      "å¾®": 8885,
      "ĊĊĊĠ": 8886,
      "templates": 8887,
      "best": 8888,
      "ĠâĢĵ": 8889,
      "PK": 8890,
      "previous": 8891,
      "ìĿĢ": 8892,
      "Ġtransfer": 8893,
      "|;": 8894,
      "querySelector": 8895,
      "ãģĹãģ¦": 8896,
      "_[": 8897,
      "Methods": 8898,
      "centage": 8899,
      "xffffff": 8900,
      "More": 8901,
      "Ġwin": 8902,
      "notes": 8903,
      "LOB": 8904,
      "ĊĊĉĉĉĉ": 8905,
      "Guid": 8906,
      "ĠADD": 8907,
      "SPE": 8908,
      "Design": 8909,
      "Ġcompare": 8910,
      "ĊĠĠĠĠĠĠĊĠĠĠĠĠ": 8911,
      "Ġtell": 8912,
      "ĠRouter": 8913,
      "æľįåĬ¡": 8914,
      "quip": 8915,
      "ĠPropTypes": 8916,
      "åıĤæķ°": 8917,
      "Ġê²": 8918,
      "WT": 8919,
      "ĠNAME": 8920,
      "FER": 8921,
      "bank": 8922,
      "Ġfunctionality": 8923,
      "Dao": 8924,
      "endregion": 8925,
      "gorithms": 8926,
      "è®¤": 8927,
      "Ġpack": 8928,
      "ĠFont": 8929,
      "contract": 8930,
      "è¾ĵ": 8931,
      "energy": 8932,
      "ä¸İ": 8933,
      "Ġtexture": 8934,
      "Ġintent": 8935,
      "matches": 8936,
      "Tuple": 8937,
      "sidebar": 8938,
      "ìķ": 8939,
      "Ġlonger": 8940,
      "æ¸": 8941,
      "otor": 8942,
      "\":[": 8943,
      "oth": 8944,
      "archive": 8945,
      "TEGER": 8946,
      "'},": 8947,
      "Cast": 8948,
      "ĠNE": 8949,
      "Ġ'{": 8950,
      "curr": 8951,
      "lb": 8952,
      "fw": 8953,
      "jax": 8954,
      "Ġvi": 8955,
      "Ġimportant": 8956,
      "reduce": 8957,
      "shall": 8958,
      "ViewModel": 8959,
      "ç»Ł": 8960,
      "ĠIllegal": 8961,
      "VIDED": 8962,
      "æ¶": 8963,
      "vention": 8964,
      "allenge": 8965,
      "çĥ": 8966,
      "Ġ___": 8967,
      "ĠTHIS": 8968,
      "{})": 8969,
      "changed": 8970,
      "Ġscan": 8971,
      "itecture": 8972,
      "arer": 8973,
      "->{": 8974,
      "Ð¾Ð±": 8975,
      "expand": 8976,
      "ĠInitialize": 8977,
      "Coefficient": 8978,
      "å¢": 8979,
      "ç¬¬": 8980,
      "epoch": 8981,
      "ĠTry": 8982,
      "Ð³": 8983,
      "ĠAddress": 8984,
      "phi": 8985,
      "Ġcompiler": 8986,
      "åĪĻ": 8987,
      "Ġear": 8988,
      "Combo": 8989,
      "Ġhit": 8990,
      "Blue": 8991,
      "åı£": 8992,
      "NEXT": 8993,
      "PACE": 8994,
      "ĠCOPYRIGHT": 8995,
      "enced": 8996,
      "çŃī": 8997,
      "Ġknown": 8998,
      "wall": 8999,
      "ilation": 9000,
      "--------------": 9001,
      "camera": 9002,
      "Ġdiscus": 9003,
      "aled": 9004,
      "visual": 9005,
      "Bucket": 9006,
      "Ġmembers": 9007,
      "ongs": 9008,
      "markdown": 9009,
      "Ġeverything": 9010,
      "ĠĊĠĠĠĠĠĠĠĠĠĠĠĠĠĠĠ": 9011,
      "Pack": 9012,
      "Present": 9013,
      "aced": 9014,
      "ĠLIABILITY": 9015,
      "Origin": 9016,
      "cade": 9017,
      "dynamic": 9018,
      "Constraint": 9019,
      "Fe": 9020,
      "ARK": 9021,
      "ĠÄĳ": 9022,
      "ĠSets": 9023,
      "Sound": 9024,
      "Autom": 9025,
      "ups": 9026,
      "Checked": 9027,
      "éĸ": 9028,
      "Primary": 9029,
      "bra": 9030,
      "Seconds": 9031,
      "clus": 9032,
      "Star": 9033,
      "åŃ¦": 9034,
      "Help": 9035,
      "Ġcls": 9036,
      "Bot": 9037,
      "ĠBU": 9038,
      "AUTH": 9039,
      "selector": 9040,
      "Have": 9041,
      "ĠAccount": 9042,
      "TM": 9043,
      "Ġaudio": 9044,
      "Ã¡n": 9045,
      "Ġmaking": 9046,
      "saved": 9047,
      "crumb": 9048,
      "zu": 9049,
      "Ġfar": 9050,
      "ĠSchema": 9051,
      "Updated": 9052,
      "Ġ\"^": 9053,
      "slot": 9054,
      "Ġbuilding": 9055,
      "ĠShould": 9056,
      "onsive": 9057,
      "Diagnostics": 9058,
      "tot": 9059,
      "ĠAWS": 9060,
      "\">\\(": 9061,
      "BOOL": 9062,
      "æĥħ": 9063,
      "iNdEx": 9064,
      "WM": 9065,
      "suite": 9066,
      "ĠINCL": 9067,
      "ĠTop": 9068,
      "reflect": 9069,
      "TOKEN": 9070,
      "Ter": 9071,
      "Ġblocks": 9072,
      "userId": 9073,
      "IME": 9074,
      "ĠĊĠĠ": 9075,
      "Overflow": 9076,
      "FROM": 9077,
      "vb": 9078,
      "Qt": 9079,
      "mg": 9080,
      "ORE": 9081,
      "/\">": 9082,
      "Assign": 9083,
      "Bin": 9084,
      "Ġdidn": 9085,
      "dep": 9086,
      "Ø§ÙĦ": 9087,
      "extensions": 9088,
      "Picker": 9089,
      "Ġou": 9090,
      "lc": 9091,
      "Ġshell": 9092,
      "ĠAdded": 9093,
      "ĠReport": 9094,
      "Missing": 9095,
      "ãģĭ": 9096,
      "ĠJust": 9097,
      "Ġcanvas": 9098,
      "Ø¯": 9099,
      "åıª": 9100,
      "Ð°Ðº": 9101,
      "tor": 9102,
      "ĠContainer": 9103,
      "Refresh": 9104,
      "Lat": 9105,
      "tion": 9106,
      "SDK": 9107,
      "GTH": 9108,
      "ä¿Ŀ": 9109,
      "ipher": 9110,
      "=${": 9111,
      "Ġtransition": 9112,
      "React": 9113,
      "Done": 9114,
      "clock": 9115,
      "ND": 9116,
      "Ġmerged": 9117,
      "ipt": 9118,
      "ĠSty": 9119,
      "ira": 9120,
      "Ġcd": 9121,
      "Ġcs": 9122,
      "Consumer": 9123,
      "Extra": 9124,
      "å·²": 9125,
      "LOAT": 9126,
      "Ã§Ãµes": 9127,
      "ients": 9128,
      "ĊĠĠĠĠĠĠĠĠĠĠĠĠĠĠĠĠĠĠĠĠĠĠĠĠĠĠĠĠĠĠĠĠĠĠ": 9129,
      "photo": 9130,
      "åĪĽ": 9131,
      "ĠAdmin": 9132,
      "ĠProto": 9133,
      "ĠArt": 9134,
      "navigation": 9135,
      "Observer": 9136,
      "ceeded": 9137,
      "ara": 9138,
      "ĊĉĉĠ": 9139,
      "æĵ": 9140,
      "FilePath": 9141,
      "orary": 9142,
      "Ġ\">": 9143,
      "pip": 9144,
      "Ġarticle": 9145,
      "ERS": 9146,
      "ĠTag": 9147,
      "'+": 9148,
      "Metric": 9149,
      "Ġappropriate": 9150,
      "ĠDevice": 9151,
      "methods": 9152,
      "scriptions": 9153,
      "æĢģ": 9154,
      "Ġ'')": 9155,
      "Rules": 9156,
      "floor": 9157,
      "ĠPri": 9158,
      "entries": 9159,
      "Ġdep": 9160,
      "Ġyes": 9161,
      "Ġauthentication": 9162,
      "ancell": 9163,
      "tax": 9164,
      "standard": 9165,
      "Navigation": 9166,
      ">/": 9167,
      "åıĺ": 9168,
      "valueOf": 9169,
      "ĠDown": 9170,
      "/${": 9171,
      "peated": 9172,
      "implement": 9173,
      "Family": 9174,
      "!(\"": 9175,
      "Factor": 9176,
      "]\",": 9177,
      "Ġlas": 9178,
      "Ġspr": 9179,
      "Ġvo": 9180,
      "ĠExpect": 9181,
      "ĠPREC": 9182,
      "NODE": 9183,
      "=/": 9184,
      "evalu": 9185,
      "ĉĉĉĉĉ": 9186,
      "Ġbackend": 9187,
      "ĠNow": 9188,
      "åķ": 9189,
      "ĠDec": 9190,
      "Constraints": 9191,
      "sock": 9192,
      "ç½ĳ": 9193,
      "Place": 9194,
      "BT": 9195,
      "Ġselector": 9196,
      "Integr": 9197,
      "Ġreading": 9198,
      "INDEX": 9199,
      "rase": 9200,
      "iversity": 9201,
      "Ġseed": 9202,
      "Ġnotification": 9203,
      "Ġcli": 9204,
      "Validate": 9205,
      "Ġchoose": 9206,
      "permission": 9207,
      "Est": 9208,
      "ĠOK": 9209,
      "Ġcp": 9210,
      "USED": 9211,
      "Delta": 9212,
      "Android": 9213,
      "clc": 9214,
      "ĠMaybe": 9215,
      "ĠJob": 9216,
      "illing": 9217,
      "Ġdr": 9218,
      "Ġrouter": 9219,
      "Ġpour": 9220,
      "!!!!": 9221,
      "prevent": 9222,
      "**,": 9223,
      "weet": 9224,
      "Ġmatching": 9225,
      "Ġcalculate": 9226,
      "Ġnpm": 9227,
      "bro": 9228,
      "Ġfoo": 9229,
      "Ġvertex": 9230,
      "ente": 9231,
      "ĠPrint": 9232,
      "Ġrecords": 9233,
      "abe": 9234,
      "Ġwx": 9235,
      "Ġpa": 9236,
      "čĊĠĠĠĠĠĠĠĠĠĠĠĠĠĠĠĠĠĠĠĠĠĠĠĠĠĠĠĠĠĠĠ": 9237,
      "å¤Ħ": 9238,
      "orph": 9239,
      "Ġrs": 9240,
      "zn": 9241,
      "Ċĉĉĉĉĉĉĉĉĉĉĉ": 9242,
      "flash": 9243,
      "CONST": 9244,
      "><?": 9245,
      "\".\"": 9246,
      "environment": 9247,
      "Ġdevices": 9248,
      "Ġpx": 9249,
      "Ġinf": 9250,
      "ç±»åŀĭ": 9251,
      "filters": 9252,
      "à¯į": 9253,
      "ç¬¦": 9254,
      "ledge": 9255,
      "Ð¸Ð¼": 9256,
      "CMake": 9257,
      "++){": 9258,
      "entities": 9259,
      "arding": 9260,
      "Ġpt": 9261,
      "Ġthanks": 9262,
      "Reply": 9263,
      "prise": 9264,
      "Ġanimation": 9265,
[...]
